{
  "version": "1.0",
  "truncation": null,
  "padding": null,
  "added_tokens": [
    {
      "id": 0,
      "content": "[PAD]",
      "single_word": false,
      "lstrip": false,
      "rstrip": false,
      "normalized": false,
      "special": true
    },
    {
      "id": 101,
      "content": "[UNK]",
      "single_word": false,
      "lstrip": false,
      "rstrip": false,
      "normalized": false,
      "special": true
    },
    {
      "id": 102,
      "content": "[CLS]",
      "single_word": false,
      "lstrip": false,
      "rstrip": false,
      "normalized": false,
      "special": true
    },
    {
      "id": 103,
      "content": "[SEP]",
      "single_word": false,
      "lstrip": false,
      "rstrip": false,
      "normalized": false,
      "special": true
    },
    {
      "id": 104,
      "content": "[MASK]",
      "single_word": false,
      "lstrip": false,
      "rstrip": false,
      "normalized": false,
      "special": true
    }
  ],
  "normalizer": {
    "type": "BertNormalizer",
    "clean_text": true,
    "handle_chinese_chars": true,
    "strip_accents": null,
    "lowercase": false
  },
  "pre_tokenizer": {
    "type": "BertPreTokenizer"
  },
  "post_processor": {
    "type": "TemplateProcessing",
    "single": [
      {
        "SpecialToken": {
          "id": "[CLS]",
          "type_id": 0
        }
      },
      {
        "Sequence": {
          "id": "A",
          "type_id": 0
        }
      },
      {
        "SpecialToken": {
          "id": "[SEP]",
          "type_id": 0
        }
      }
    ],
    "pair": [
      {
        "SpecialToken": {
          "id": "[CLS]",
          "type_id": 0
        }
      },
      {
        "Sequence": {
          "id": "A",
          "type_id": 0
        }
      },
      {
        "SpecialToken": {
          "id": "[SEP]",
          "type_id": 0
        }
      },
      {
        "Sequence": {
          "id": "B",
          "type_id": 1
        }
      },
      {
        "SpecialToken": {
          "id": "[SEP]",
          "type_id": 1
        }
      }
    ],
    "special_tokens": {
      "[CLS]": {
        "id": "[CLS]",
        "ids": [
          102
        ],
        "tokens": [
          "[CLS]"
        ]
      },
      "[SEP]": {
        "id": "[SEP]",
        "ids": [
          103
        ],
        "tokens": [
          "[SEP]"
        ]
      }
    }
  },
  "decoder": {
    "type": "WordPiece",
    "prefix": "##",
    "cleanup": true
  },
  "model": {
    "type": "WordPiece",
    "unk_token": "[UNK]",
    "continuing_subword_prefix": "##",
    "max_input_chars_per_word": 100,
    "vocab": {
      "[PAD]": 0,
      "unused0": 1,
      "unused1": 2,
      "unused2": 3,
      "unused3": 4,
      "unused4": 5,
      "unused5": 6,
      "unused6": 7,
      "unused7": 8,
      "unused8": 9,
      "unused9": 10,
      "unused10": 11,
      "unused11": 12,
      "unused12": 13,
      "unused13": 14,
      "unused14": 15,
      "unused15": 16,
      "unused16": 17,
      "unused17": 18,
      "unused18": 19,
      "unused19": 20,
      "unused20": 21,
      "unused21": 22,
      "unused22": 23,
      "unused23": 24,
      "unused24": 25,
      "unused25": 26,
      "unused26": 27,
      "unused27": 28,
      "unused28": 29,
      "unused29": 30,
      "unused30": 31,
      "unused31": 32,
      "unused32": 33,
      "unused33": 34,
      "unused34": 35,
      "unused35": 36,
      "unused36": 37,
      "unused37": 38,
      "unused38": 39,
      "unused39": 40,
      "unused40": 41,
      "unused41": 42,
      "unused42": 43,
      "unused43": 44,
      "unused44": 45,
      "unused45": 46,
      "unused46": 47,
      "unused47": 48,
      "unused48": 49,
      "unused49": 50,
      "unused50": 51,
      "unused51": 52,
      "unused52": 53,
      "unused53": 54,
      "unused54": 55,
      "unused55": 56,
      "unused56": 57,
      "unused57": 58,
      "unused58": 59,
      "unused59": 60,
      "unused60": 61,
      "unused61": 62,
      "unused62": 63,
      "unused63": 64,
      "unused64": 65,
      "unused65": 66,
      "unused66": 67,
      "unused67": 68,
      "unused68": 69,
      "unused69": 70,
      "unused70": 71,
      "unused71": 72,
      "unused72": 73,
      "unused73": 74,
      "unused74": 75,
      "unused75": 76,
      "unused76": 77,
      "unused77": 78,
      "unused78": 79,
      "unused79": 80,
      "unused80": 81,
      "unused81": 82,
      "unused82": 83,
      "unused83": 84,
      "unused84": 85,
      "unused85": 86,
      "unused86": 87,
      "unused87": 88,
      "unused88": 89,
      "unused89": 90,
      "unused90": 91,
      "unused91": 92,
      "unused92": 93,
      "unused93": 94,
      "unused94": 95,
      "unused95": 96,
      "unused96": 97,
      "unused97": 98,
      "unused98": 99,
      "unused99": 100,
      "[UNK]": 101,
      "[CLS]": 102,
      "[SEP]": 103,
      "[MASK]": 104,
      "d": 105,
      "##on": 106,
      "c": 107,
      "##er": 108,
      "s": 109,
      "p": 110,
      "a": 111,
      "##to": 112,
      "##re": 113,
      "##en": 114,
      "##ta": 115,
      "##ti": 116,
      "##in": 117,
      "##la": 118,
      "##el": 119,
      "di": 120,
      "##ri": 121,
      "##ra": 122,
      "##li": 123,
      "##te": 124,
      "##le": 125,
      "e": 126,
      "m": 127,
      "##un": 128,
      "##ia": 129,
      "n": 130,
      "##ro": 131,
      "##an": 132,
      "##ion": 133,
      "i": 134,
      "##ss": 135,
      "del": 136,
      "f": 137,
      "##he": 138,
      "in": 139,
      "##or": 140,
      "un": 141,
      "##lo": 142,
      "v": 143,
      "##zion": 144,
      "##om": 145,
      "la": 146,
      "##qu": 147,
      "##os": 148,
      "##ar": 149,
      "##ic": 150,
      "S": 151,
      "C": 152,
      "con": 153,
      "t": 154,
      "##es": 155,
      "per": 156,
      "al": 157,
      "che": 158,
      "g": 159,
      "##io": 160,
      "qu": 161,
      "il": 162,
      "##al": 163,
      "##men": 164,
      "##do": 165,
      "##is": 166,
      "##zione": 167,
      "##et": 168,
      "##no": 169,
      "##ca": 170,
      "su": 171,
      "##co": 172,
      "P": 173,
      "##ma": 174,
      "ri": 175,
      "##ere": 176,
      "o": 177,
      "L": 178,
      "-": 179,
      "A": 180,
      "l": 181,
      "b": 182,
      "##gli": 183,
      "I": 184,
      "##mo": 185,
      "##za": 186,
      "##va": 187,
      "de": 188,
      "M": 189,
      "N": 190,
      "##ci": 191,
      "##ono": 192,
      "##ol": 193,
      "##ce": 194,
      "##di": 195,
      "com": 196,
      "pro": 197,
      "è": 198,
      "le": 199,
      "##tu": 200,
      "##tto": 201,
      "1": 202,
      "da": 203,
      "D": 204,
      "##mp": 205,
      "se": 206,
      "nel": 207,
      "##da": 208,
      "##vo": 209,
      "##si": 210,
      "E": 211,
      "non": 212,
      "della": 213,
      "ca": 214,
      "##ch": 215,
      "##pp": 216,
      "##vi": 217,
      "##era": 218,
      "re": 219,
      "ma": 220,
      "an": 221,
      "##gg": 222,
      "si": 223,
      "una": 224,
      "h": 225,
      "##mi": 226,
      "##bi": 227,
      "po": 228,
      "##ve": 229,
      "##na": 230,
      "fa": 231,
      "##tà": 232,
      "pre": 233,
      "##us": 234,
      "T": 235,
      "##tra": 236,
      "##..": 237,
      "##tti": 238,
      "##ter": 239,
      "##bb": 240,
      "tu": 241,
      "B": 242,
      "G": 243,
      "sta": 244,
      "so": 245,
      "##...": 246,
      "##de": 247,
      "##ni": 248,
      "(": 249,
      "2": 250,
      "##che": 251,
      "pa": 252,
      "##ica": 253,
      "##sp": 254,
      "##mente": 255,
      "##ione": 256,
      "R": 257,
      "##uo": 258,
      "##ina": 259,
      "##ff": 260,
      "##cc": 261,
      "##ran": 262,
      "##sso": 263,
      "##tro": 264,
      "##ssi": 265,
      "##tta": 266,
      "##ente": 267,
      "F": 268,
      "V": 269,
      "##mento": 270,
      "##se": 271,
      "ques": 272,
      "dal": 273,
      "##ui": 274,
      "lo": 275,
      "##ga": 276,
      "cos": 277,
      "ha": 278,
      "par": 279,
      "##pa": 280,
      "##enti": 281,
      "##sa": 282,
      "##ie": 283,
      "\"": 284,
      "##ver": 285,
      "##zioni": 286,
      "##zza": 287,
      "sono": 288,
      "##so": 289,
      "me": 290,
      "##mb": 291,
      "dei": 292,
      "tra": 293,
      "te": 294,
      "do": 295,
      "pi": 296,
      "##ano": 297,
      "dell": 298,
      "##po": 299,
      "##go": 300,
      "##ten": 301,
      "ci": 302,
      "##tri": 303,
      "##cia": 304,
      "##tre": 305,
      "##tan": 306,
      "H": 307,
      "ne": 308,
      "La": 309,
      "##pe": 310,
      "##ale": 311,
      "O": 312,
      "Non": 313,
      "##ali": 314,
      "##ssa": 315,
      "ra": 316,
      "##ero": 317,
      "mi": 318,
      "##hi": 319,
      "vi": 320,
      "##ru": 321,
      "##iamo": 322,
      "##zz": 323,
      "delle": 324,
      "##ine": 325,
      "##uto": 326,
      "##ul": 327,
      "##me": 328,
      "Il": 329,
      "##con": 330,
      "##eri": 331,
      "##ene": 332,
      "##ini": 333,
      "alla": 334,
      "##etto": 335,
      "gi": 336,
      "##glio": 337,
      "##zia": 338,
      "##00": 339,
      "sul": 340,
      "mo": 341,
      "come": 342,
      "Q": 343,
      "##ando": 344,
      "##ino": 345,
      "Com": 346,
      "##sti": 347,
      "Ma": 348,
      "u": 349,
      "##rio": 350,
      "##enza": 351,
      "sa": 352,
      "più": 353,
      "Qu": 354,
      "19": 355,
      "U": 356,
      "##pi": 357,
      "##ria": 358,
      "##gu": 359,
      "##one": 360,
      "##ico": 361,
      "pri": 362,
      "##ne": 363,
      "ti": 364,
      "##ggi": 365,
      "no": 366,
      "##du": 367,
      "gli": 368,
      "In": 369,
      "quel": 370,
      "##gno": 371,
      "li": 372,
      "ess": 373,
      "##tato": 374,
      "for": 375,
      "fi": 376,
      "##uro": 377,
      "ba": 378,
      "##chi": 379,
      "##sse": 380,
      "all": 381,
      "ad": 382,
      "imp": 383,
      "##tura": 384,
      "##bili": 385,
      "##etti": 386,
      "pu": 387,
      "av": 388,
      "##ggio": 389,
      "comp": 390,
      "##ici": 391,
      "##tare": 392,
      "##ani": 393,
      "##anno": 394,
      "questo": 395,
      "Si": 396,
      "sc": 397,
      "co": 398,
      "##ven": 399,
      "Per": 400,
      "Con": 401,
      "du": 402,
      "nella": 403,
      "##are": 404,
      "3": 405,
      "essere": 406,
      "Se": 407,
      "##tico": 408,
      "anche": 409,
      "##osi": 410,
      "ta": 411,
      "app": 412,
      "##uni": 413,
      "##dere": 414,
      "suo": 415,
      "##gra": 416,
      "ai": 417,
      "ar": 418,
      "##for": 419,
      "##sc": 420,
      "##ssione": 421,
      "##lu": 422,
      "##fica": 423,
      "##sta": 424,
      "##menti": 425,
      "sp": 426,
      "##bile": 427,
      "##tte": 428,
      "##zi": 429,
      "va": 430,
      "prop": 431,
      "Ca": 432,
      "##oni": 433,
      "vo": 434,
      "Al": 435,
      "##ato": 436,
      "##esi": 437,
      "##tel": 438,
      "parte": 439,
      "col": 440,
      "##per": 441,
      "Le": 442,
      "ven": 443,
      "##tati": 444,
      "##cce": 445,
      "J": 446,
      "##tori": 447,
      "##osa": 448,
      "na": 449,
      "##bbe": 450,
      "ter": 451,
      "##der": 452,
      "cui": 453,
      "##ur": 454,
      "##dia": 455,
      "##gi": 456,
      "##man": 457,
      "##gna": 458,
      "##gni": 459,
      "tro": 460,
      "ed": 461,
      "##ona": 462,
      "ris": 463,
      "ser": 464,
      "mol": 465,
      "##01": 466,
      "##ele": 467,
      "No": 468,
      "to": 469,
      "##um": 470,
      "ch": 471,
      "##glia": 472,
      "##lare": 473,
      "##ai": 474,
      "cre": 475,
      "cor": 476,
      "##esti": 477,
      "##endo": 478,
      "##tere": 479,
      "ho": 480,
      "Mi": 481,
      "stato": 482,
      "degli": 483,
      "solo": 484,
      "##lica": 485,
      "W": 486,
      "##zzo": 487,
      "pres": 488,
      "Pa": 489,
      "##ren": 490,
      "##ron": 491,
      "vol": 492,
      "qual": 493,
      "##etta": 494,
      "am": 495,
      "sia": 496,
      "sua": 497,
      "lavo": 498,
      "dire": 499,
      "##ba": 500,
      "pia": 501,
      "##tica": 502,
      "##rin": 503,
      "loro": 504,
      "##mpo": 505,
      "##ura": 506,
      "##tru": 507,
      "##tali": 508,
      "##ese": 509,
      "cosa": 510,
      "dalla": 511,
      "An": 512,
      "gra": 513,
      "##lan": 514,
      "K": 515,
      "##ze": 516,
      "##zio": 517,
      "alle": 518,
      "##orta": 519,
      "ve": 520,
      "disp": 521,
      "##ioni": 522,
      "4": 523,
      "chi": 524,
      "nuo": 525,
      "##ppo": 526,
      "prima": 527,
      "##anti": 528,
      "era": 529,
      "##ché": 530,
      "##cco": 531,
      "inter": 532,
      "Re": 533,
      "euro": 534,
      "##am": 535,
      "pers": 536,
      "##gn": 537,
      "due": 538,
      "##erca": 539,
      "##il": 540,
      "##iso": 541,
      "Nel": 542,
      "bene": 543,
      "##ord": 544,
      "fu": 545,
      "abb": 546,
      "Do": 547,
      "200": 548,
      "##tore": 549,
      "vis": 550,
      "es": 551,
      "fatto": 552,
      "##uti": 553,
      "qui": 554,
      "spe": 555,
      "##ge": 556,
      "##missione": 557,
      "nos": 558,
      "##mma": 559,
      "5": 560,
      "gen": 561,
      "ric": 562,
      "at": 563,
      "tutto": 564,
      "##ello": 565,
      "##enta": 566,
      "##uta": 567,
      "##gia": 568,
      "Ho": 569,
      "tutti": 570,
      "europe": 571,
      "questa": 572,
      "##bo": 573,
      "##cca": 574,
      "pen": 575,
      "ver": 576,
      "##anto": 577,
      "anni": 578,
      "##dio": 579,
      "acc": 580,
      "##cch": 581,
      "fo": 582,
      "201": 583,
      "##forma": 584,
      "fare": 585,
      "hanno": 586,
      "far": 587,
      "ste": 588,
      "##).": 589,
      "##vis": 590,
      "gior": 591,
      "man": 592,
      "contro": 593,
      "en": 594,
      "##sid": 595,
      "gio": 596,
      "##orto": 597,
      "##pera": 598,
      "##ing": 599,
      "rela": 600,
      "dov": 601,
      "sulla": 602,
      "##ad": 603,
      "##cora": 604,
      "Ques": 605,
      "##at": 606,
      "semp": 607,
      "##ure": 608,
      "##osto": 609,
      "uno": 610,
      "ave": 611,
      "##via": 612,
      "men": 613,
      "mon": 614,
      "##),": 615,
      "##ena": 616,
      "molto": 617,
      "##res": 618,
      "mio": 619,
      "dis": 620,
      "Lo": 621,
      "chia": 622,
      "quando": 623,
      "##iste": 624,
      "Po": 625,
      "comun": 626,
      "##fi": 627,
      "gran": 628,
      "##que": 629,
      "Commissione": 630,
      "|": 631,
      "##'.": 632,
      "ro": 633,
      "##zie": 634,
      "Di": 635,
      "##as": 636,
      "tuo": 637,
      "##vol": 638,
      "nell": 639,
      "##tiva": 640,
      "##ccia": 641,
      "io": 642,
      "##vano": 643,
      "poli": 644,
      "##mer": 645,
      "car": 646,
      "risp": 647,
      "aff": 648,
      "##usa": 649,
      "De": 650,
      "6": 651,
      "##osta": 652,
      "succe": 653,
      "Ci": 654,
      "conc": 655,
      "cons": 656,
      "##tin": 657,
      "##sto": 658,
      "##ante": 659,
      "##ento": 660,
      "##ulti": 661,
      "##rebbe": 662,
      "##cu": 663,
      "##indi": 664,
      "Ti": 665,
      "Che": 666,
      "##rie": 667,
      "##\",": 668,
      "##mina": 669,
      "Tu": 670,
      "##dre": 671,
      "dove": 672,
      "può": 673,
      "##iche": 674,
      "##uno": 675,
      "##fer": 676,
      "tempo": 677,
      "quello": 678,
      "##ck": 679,
      "cer": 680,
      "##ette": 681,
      "##gui": 682,
      "##bilità": 683,
      "##sione": 684,
      "secon": 685,
      "Ne": 686,
      "esp": 687,
      "##ian": 688,
      "gu": 689,
      "sos": 690,
      "prodo": 691,
      "##ome": 692,
      "dopo": 693,
      "Sono": 694,
      "fin": 695,
      "È": 696,
      ".": 697,
      "##tante": 698,
      "trova": 699,
      "sei": 700,
      "Pro": 701,
      "##uoi": 702,
      "pubb": 703,
      "##\".": 704,
      "##tivo": 705,
      "##ho": 706,
      "stra": 707,
      "ass": 708,
      "##gione": 709,
      "ancora": 710,
      "altri": 711,
      "##zo": 712,
      "nei": 713,
      "##ella": 714,
      "diver": 715,
      "##cis": 716,
      "memb": 717,
      "pun": 718,
      "##org": 719,
      "##lora": 720,
      "mia": 721,
      "Un": 722,
      "fe": 723,
      "qualc": 724,
      "Da": 725,
      "alc": 726,
      "quali": 727,
      "ten": 728,
      "7": 729,
      "quanto": 730,
      "fra": 731,
      "sotto": 732,
      "##ha": 733,
      "poss": 734,
      "us": 735,
      "dall": 736,
      "via": 737,
      "hai": 738,
      "modo": 739,
      "##ggia": 740,
      "detto": 741,
      "lavoro": 742,
      "##zionale": 743,
      "Par": 744,
      "##lamento": 745,
      "##ana": 746,
      "Pre": 747,
      "##ard": 748,
      "stata": 749,
      "##lizza": 750,
      "##età": 751,
      "##',": 752,
      "##azione": 753,
      "199": 754,
      "anda": 755,
      "So": 756,
      "##siglio": 757,
      "tre": 758,
      "possi": 759,
      "vita": 760,
      "9": 761,
      "Be": 762,
      "così": 763,
      "questi": 764,
      "##llo": 765,
      "##elli": 766,
      "##ggiun": 767,
      "##dica": 768,
      "servi": 769,
      "Sa": 770,
      "Stati": 771,
      "stu": 772,
      "##inis": 773,
      "sol": 774,
      "##pre": 775,
      "##ber": 776,
      "auto": 777,
      "##scia": 778,
      "mai": 779,
      "##zzi": 780,
      "##rante": 781,
      "##lmente": 782,
      "sempre": 783,
      "sca": 784,
      "##cio": 785,
      "casa": 786,
      "##pri": 787,
      "##rinci": 788,
      "tratta": 789,
      "##colo": 790,
      "##cqu": 791,
      "##ttura": 792,
      "can": 793,
      "##ttu": 794,
      "##19": 795,
      "forma": 796,
      "eff": 797,
      "bu": 798,
      "tor": 799,
      "##rare": 800,
      "##tt": 801,
      "##fe": 802,
      "##rato": 803,
      "Come": 804,
      "fon": 805,
      "##fa": 806,
      "8": 807,
      "##omo": 808,
      "##ice": 809,
      "##mbre": 810,
      "atti": 811,
      "##lla": 812,
      "##anza": 813,
      "Mar": 814,
      "##elo": 815,
      "parti": 816,
      "cir": 817,
      "ogni": 818,
      "por": 819,
      "inc": 820,
      "cen": 821,
      "sic": 822,
      "ini": 823,
      "##tale": 824,
      "prog": 825,
      "uti": 826,
      "spa": 827,
      "##ble": 828,
      "rego": 829,
      "Consiglio": 830,
      "ora": 831,
      "##unità": 832,
      "giu": 833,
      "Co": 834,
      "##mon": 835,
      "sal": 836,
      "##vere": 837,
      "diff": 838,
      "Vi": 839,
      "Sta": 840,
      "nelle": 841,
      "##esa": 842,
      "##ccu": 843,
      "##ostra": 844,
      "##tiche": 845,
      "##vità": 846,
      "comple": 847,
      "princi": 848,
      "siste": 849,
      "svi": 850,
      "piu": 851,
      "##tter": 852,
      "senza": 853,
      "##arti": 854,
      "sco": 855,
      "0": 856,
      "##anta": 857,
      "Ar": 858,
      "18": 859,
      "num": 860,
      "10": 861,
      "volta": 862,
      "##arda": 863,
      "#": 864,
      "##and": 865,
      "##gis": 866,
      "Ch": 867,
      "##ordo": 868,
      "##duzione": 869,
      "ga": 870,
      "pren": 871,
      "sto": 872,
      "##almente": 873,
      "capi": 874,
      "##titu": 875,
      "##esta": 876,
      "##fo": 877,
      "Ha": 878,
      "Ba": 879,
      "##tanto": 880,
      "off": 881,
      "mar": 882,
      "Gra": 883,
      "##vero": 884,
      "Gi": 885,
      "Me": 886,
      "##lazione": 887,
      "raga": 888,
      "mis": 889,
      "##fic": 890,
      "##conom": 891,
      "##tanti": 892,
      "poi": 893,
      "lei": 894,
      "informa": 895,
      "svilu": 896,
      "##tr": 897,
      "##etro": 898,
      "quella": 899,
      "bi": 900,
      "rapp": 901,
      "miglio": 902,
      "##bbiamo": 903,
      "dom": 904,
      "##alizza": 905,
      "impor": 906,
      "##ON": 907,
      "membri": 908,
      "##ghi": 909,
      "##ticolo": 910,
      "proce": 911,
      "##ttà": 912,
      "Ok": 913,
      "##feri": 914,
      "##tamente": 915,
      "##rig": 916,
      "##imp": 917,
      "Oh": 918,
      "er": 919,
      "Cosa": 920,
      "sen": 921,
      "perché": 922,
      "##rei": 923,
      "##osizione": 924,
      "Dio": 925,
      "##CE": 926,
      "##una": 927,
      "##enze": 928,
      "##ton": 929,
      "tua": 930,
      "Su": 931,
      "lu": 932,
      "tras": 933,
      "##pra": 934,
      "conos": 935,
      "Ro": 936,
      "lui": 937,
      "Na": 938,
      "stru": 939,
      "##tor": 940,
      "##pen": 941,
      "##gono": 942,
      "el": 943,
      "proble": 944,
      "viene": 945,
      "##dente": 946,
      "##denti": 947,
      "ese": 948,
      "grande": 949,
      "partico": 950,
      "dai": 951,
      "noi": 952,
      "nece": 953,
      "##rica": 954,
      "primo": 955,
      "pic": 956,
      "proprio": 957,
      "Chi": 958,
      "##tive": 959,
      "##cci": 960,
      "##chia": 961,
      "cri": 962,
      "##th": 963,
      "##vvero": 964,
      "maggio": 965,
      "Questo": 966,
      "fino": 967,
      "##ltre": 968,
      "fun": 969,
      "##teria": 970,
      "lib": 971,
      "stesso": 972,
      "progra": 973,
      "##sia": 974,
      "##vato": 975,
      "##trib": 976,
      "##glie": 977,
      "fami": 978,
      "k": 979,
      "##amo": 980,
      "potre": 981,
      "##razione": 982,
      "dice": 983,
      "città": 984,
      "##eni": 985,
      "—": 986,
      "##ell": 987,
      "##met": 988,
      "suoi": 989,
      "##col": 990,
      "##log": 991,
      "##ritto": 992,
      "##rà": 993,
      "nuovo": 994,
      "caso": 995,
      "Fa": 996,
      "##bito": 997,
      "##elle": 998,
      "##tazione": 999,
      "senti": 1000,
      "condi": 1001,
      "Tra": 1002,
      "arri": 1003,
      "sin": 1004,
      "sti": 1005,
      "indi": 1006,
      "and": 1007,
      "##vole": 1008,
      "lun": 1009,
      "##tivi": 1010,
      "diven": 1011,
      "Ri": 1012,
      "pe": 1013,
      "Sì": 1014,
      "mondo": 1015,
      "##ciale": 1016,
      "europea": 1017,
      "##ari": 1018,
      "aver": 1019,
      "cam": 1020,
      "15": 1021,
      "persone": 1022,
      "go": 1023,
      "##ssimo": 1024,
      "pag": 1025,
      "gru": 1026,
      "fine": 1027,
      "198": 1028,
      "situ": 1029,
      "stati": 1030,
      "porta": 1031,
      "##iente": 1032,
      "##ggior": 1033,
      "rip": 1034,
      "12": 1035,
      "ag": 1036,
      "secondo": 1037,
      "passa": 1038,
      "fuo": 1039,
      "quale": 1040,
      "Va": 1041,
      "##anda": 1042,
      "##isce": 1043,
      "mili": 1044,
      "giorno": 1045,
      "##ris": 1046,
      "tec": 1047,
      "For": 1048,
      "Li": 1049,
      "genera": 1050,
      "##tten": 1051,
      "nome": 1052,
      "abbiamo": 1053,
      "##oso": 1054,
      "Fran": 1055,
      "##zionali": 1056,
      "“": 1057,
      "altre": 1058,
      "econom": 1059,
      "Ra": 1060,
      "sistema": 1061,
      "##ista": 1062,
      "##tanza": 1063,
      "comune": 1064,
      "Vo": 1065,
      "##.1": 1066,
      "deve": 1067,
      "asp": 1068,
      "segui": 1069,
      "##ich": 1070,
      "colle": 1071,
      "possono": 1072,
      "##use": 1073,
      "##sie": 1074,
      "dello": 1075,
      "##inter": 1076,
      "qualcosa": 1077,
      "liv": 1078,
      "##uzione": 1079,
      "altro": 1080,
      "au": 1081,
      "tutte": 1082,
      "##lato": 1083,
      "prodotti": 1084,
      "inizia": 1085,
      "camp": 1086,
      "contin": 1087,
      "##ranno": 1088,
      "super": 1089,
      "stan": 1090,
      "cal": 1091,
      "quindi": 1092,
      "##van": 1093,
      "intere": 1094,
      "favo": 1095,
      "z": 1096,
      "don": 1097,
      "vero": 1098,
      "cosi": 1099,
      "##mato": 1100,
      "Uni": 1101,
      "##all": 1102,
      "entra": 1103,
      "##cchi": 1104,
      "mentre": 1105,
      "Beh": 1106,
      "##lari": 1107,
      "posto": 1108,
      "sopra": 1109,
      "##erra": 1110,
      "Io": 1111,
      "setto": 1112,
      "##omento": 1113,
      "rigu": 1114,
      "##ccupa": 1115,
      "##ose": 1116,
      "tutta": 1117,
      "para": 1118,
      "##gh": 1119,
      "##rito": 1120,
      "nor": 1121,
      "punto": 1122,
      "##sidente": 1123,
      "ele": 1124,
      "bamb": 1125,
      "Gli": 1126,
      "##tera": 1127,
      "##mpio": 1128,
      "lascia": 1129,
      "Te": 1130,
      "base": 1131,
      "##ire": 1132,
      "mor": 1133,
      "Mo": 1134,
      "##cri": 1135,
      "##talia": 1136,
      "##cita": 1137,
      "biso": 1138,
      "##ercato": 1139,
      "org": 1140,
      "Grazie": 1141,
      "##lore": 1142,
      "##stitu": 1143,
      "Z": 1144,
      "##anzia": 1145,
      "##tenza": 1146,
      "risul": 1147,
      "##mbra": 1148,
      "nostro": 1149,
      "già": 1150,
      "agli": 1151,
      "siamo": 1152,
      "##ziona": 1153,
      "##tici": 1154,
      "##ER": 1155,
      "aveva": 1156,
      "speci": 1157,
      "San": 1158,
      "##cen": 1159,
      "comuni": 1160,
      "materia": 1161,
      "##gnor": 1162,
      "##gato": 1163,
      "##arà": 1164,
      "##cendo": 1165,
      "##uso": 1166,
      "##erva": 1167,
      "fer": 1168,
      "##vin": 1169,
      "##ttiva": 1170,
      "decis": 1171,
      "##000": 1172,
      "Ehi": 1173,
      "contra": 1174,
      "##gua": 1175,
      "##ccio": 1176,
      "##gre": 1177,
      "##gue": 1178,
      "##fini": 1179,
      "##une": 1180,
      "##ffic": 1181,
      "cara": 1182,
      "necessa": 1183,
      "##tari": 1184,
      "##dis": 1185,
      "##iore": 1186,
      "pubblica": 1187,
      "«": 1188,
      "##ustri": 1189,
      "Y": 1190,
      "##mmo": 1191,
      "##dono": 1192,
      "qua": 1193,
      "gius": 1194,
      "##diamo": 1195,
      "pes": 1196,
      "europeo": 1197,
      "momento": 1198,
      "opera": 1199,
      "##ttore": 1200,
      "utilizza": 1201,
      "prote": 1202,
      "##tano": 1203,
      "Hai": 1204,
      "met": 1205,
      "ness": 1206,
      "##anizza": 1207,
      "##lità": 1208,
      "Una": 1209,
      "cla": 1210,
      "dalle": 1211,
      "##.2": 1212,
      "##rono": 1213,
      "##app": 1214,
      "andare": 1215,
      "pensa": 1216,
      "Fi": 1217,
      "cose": 1218,
      "pubbli": 1219,
      "##inistra": 1220,
      "##bbero": 1221,
      "20": 1222,
      "Comunità": 1223,
      "##esco": 1224,
      "gia": 1225,
      "term": 1226,
      "vic": 1227,
      "17": 1228,
      "popo": 1229,
      "##tion": 1230,
      "rin": 1231,
      "##erci": 1232,
      "##mm": 1233,
      "##sioni": 1234,
      "programma": 1235,
      "tipo": 1236,
      "Car": 1237,
      "inf": 1238,
      "##arsi": 1239,
      "##ort": 1240,
      "X": 1241,
      "##lar": 1242,
      "fuori": 1243,
      "possibile": 1244,
      "Sei": 1245,
      "##sieme": 1246,
      "tele": 1247,
      "particolare": 1248,
      "Bo": 1249,
      "durante": 1250,
      "tale": 1251,
      "##eter": 1252,
      "##Un": 1253,
      "cu": 1254,
      "perio": 1255,
      "##inale": 1256,
      "min": 1257,
      "16": 1258,
      "numero": 1259,
      "##cere": 1260,
      "Gu": 1261,
      "rappres": 1262,
      "informazioni": 1263,
      "visto": 1264,
      "##cità": 1265,
      "##ture": 1266,
      "favore": 1267,
      "paesi": 1268,
      "avere": 1269,
      "##ppa": 1270,
      "finanzia": 1271,
      "##vamente": 1272,
      "applica": 1273,
      "disponi": 1274,
      "Mon": 1275,
      "##ll": 1276,
      "fre": 1277,
      "##acc": 1278,
      "camb": 1279,
      "alcuni": 1280,
      "##tario": 1281,
      "##enzia": 1282,
      "##val": 1283,
      "##spon": 1284,
      "14": 1285,
      "conf": 1286,
      "sviluppo": 1287,
      "gruppo": 1288,
      "##opera": 1289,
      "uni": 1290,
      "–": 1291,
      "chie": 1292,
      "circa": 1293,
      "##ke": 1294,
      "##st": 1295,
      "attra": 1296,
      "val": 1297,
      "ado": 1298,
      "Pi": 1299,
      "##rità": 1300,
      "fil": 1301,
      "livello": 1302,
      "sarà": 1303,
      "legg": 1304,
      "loca": 1305,
      "disc": 1306,
      ",": 1307,
      "visi": 1308,
      "sulle": 1309,
      "##ciali": 1310,
      "##vono": 1311,
      "acqu": 1312,
      "mani": 1313,
      "modi": 1314,
      "##orso": 1315,
      "allo": 1316,
      "##meno": 1317,
      "##tando": 1318,
      "##EN": 1319,
      "cli": 1320,
      "parteci": 1321,
      "vos": 1322,
      "##pu": 1323,
      "sui": 1324,
      "##oma": 1325,
      "politica": 1326,
      "queste": 1327,
      "##pere": 1328,
      "##unque": 1329,
      "##dato": 1330,
      "posso": 1331,
      "bisogno": 1332,
      "Lu": 1333,
      "fini": 1334,
      "famiglia": 1335,
      "ricerca": 1336,
      "##line": 1337,
      "sull": 1338,
      "##rico": 1339,
      "Pen": 1340,
      "##qui": 1341,
      "##mmi": 1342,
      "To": 1343,
      "##eno": 1344,
      "natura": 1345,
      "r": 1346,
      "ru": 1347,
      "os": 1348,
      "vin": 1349,
      "##fon": 1350,
      "davvero": 1351,
      "##uole": 1352,
      "##tello": 1353,
      "nostra": 1354,
      "conten": 1355,
      "des": 1356,
      "##dera": 1357,
      "##cono": 1358,
      "opp": 1359,
      "successo": 1360,
      "abi": 1361,
      "##dizione": 1362,
      "##articolo": 1363,
      "ins": 1364,
      "erano": 1365,
      "persona": 1366,
      "##bre": 1367,
      "Questa": 1368,
      "conse": 1369,
      "##ssion": 1370,
      "w": 1371,
      "ade": 1372,
      "sue": 1373,
      "##mmag": 1374,
      "13": 1375,
      "mercato": 1376,
      "niente": 1377,
      "##gere": 1378,
      "conta": 1379,
      "bo": 1380,
      "##tata": 1381,
      "##ute": 1382,
      "Du": 1383,
      "mus": 1384,
      "interna": 1385,
      "##tolo": 1386,
      "principa": 1387,
      "mie": 1388,
      "11": 1389,
      "den": 1390,
      "conte": 1391,
      "desi": 1392,
      "verso": 1393,
      "##ranti": 1394,
      "##dendo": 1395,
      "##vare": 1396,
      "padre": 1397,
      "##ssima": 1398,
      "##rai": 1399,
      "##orre": 1400,
      "raggiun": 1401,
      "oggi": 1402,
      "197": 1403,
      "##rsi": 1404,
      "##gnore": 1405,
      "insieme": 1406,
      "otten": 1407,
      "##uropa": 1408,
      "##-1": 1409,
      "##cato": 1410,
      "voi": 1411,
      "##esto": 1412,
      "##entra": 1413,
      "##enda": 1414,
      "appro": 1415,
      "Bu": 1416,
      "##urezza": 1417,
      "##sidera": 1418,
      "commer": 1419,
      "esa": 1420,
      "Cos": 1421,
      "continu": 1422,
      "##erà": 1423,
      "##erto": 1424,
      "trasp": 1425,
      "setti": 1426,
      "##AT": 1427,
      "meno": 1428,
      "seguito": 1429,
      "negli": 1430,
      "ren": 1431,
      "picco": 1432,
      "##ghe": 1433,
      "settore": 1434,
      "Cre": 1435,
      "inten": 1436,
      "soli": 1437,
      "person": 1438,
      "##com": 1439,
      "cap": 1440,
      "presenta": 1441,
      "Parlamento": 1442,
      "Quando": 1443,
      "abbia": 1444,
      "##verso": 1445,
      "Perche": 1446,
      "##Unione": 1447,
      "prodotto": 1448,
      "Jo": 1449,
      "volte": 1450,
      "##venti": 1451,
      "ce": 1452,
      "veri": 1453,
      "on": 1454,
      "##gnifica": 1455,
      "rice": 1456,
      "orig": 1457,
      "##0,": 1458,
      "periodo": 1459,
      "gover": 1460,
      "giorni": 1461,
      "realizza": 1462,
      "##ut": 1463,
      "##alle": 1464,
      "##mar": 1465,
      "segu": 1466,
      "##osti": 1467,
      "esempio": 1468,
      "##son": 1469,
      "lin": 1470,
      "##EL": 1471,
      "centro": 1472,
      "presente": 1473,
      "piano": 1474,
      "luo": 1475,
      "regolamento": 1476,
      "Ta": 1477,
      "ulti": 1478,
      "sarebbe": 1479,
      "##dustri": 1480,
      "anno": 1481,
      "compa": 1482,
      "##mana": 1483,
      "dati": 1484,
      "##ane": 1485,
      "as": 1486,
      "##dic": 1487,
      "##cchia": 1488,
      "Cor": 1489,
      "##0.": 1490,
      "profe": 1491,
      "##tuale": 1492,
      "meglio": 1493,
      "incon": 1494,
      "##eria": 1495,
      "foto": 1496,
      "##ritti": 1497,
      "considera": 1498,
      "##bietti": 1499,
      "perche": 1500,
      "##lio": 1501,
      "defini": 1502,
      "[": 1503,
      "Stato": 1504,
      "storia": 1505,
      "##ty": 1506,
      "qualche": 1507,
      "##altra": 1508,
      "cin": 1509,
      "soci": 1510,
      "##ES": 1511,
      "##ordina": 1512,
      "vedere": 1513,
      "oltre": 1514,
      "serie": 1515,
      "fosse": 1516,
      "sempli": 1517,
      "##be": 1518,
      "produ": 1519,
      "nuova": 1520,
      "voglio": 1521,
      "servizi": 1522,
      "molti": 1523,
      "rec": 1524,
      "reg": 1525,
      "##ardo": 1526,
      "rispetto": 1527,
      "##rata": 1528,
      "Perché": 1529,
      "##labo": 1530,
      "fran": 1531,
      "##rre": 1532,
      "bra": 1533,
      "##eo": 1534,
      "line": 1535,
      "##denza": 1536,
      "causa": 1537,
      "film": 1538,
      "problema": 1539,
      "ciò": 1540,
      "##ist": 1541,
      "sicurezza": 1542,
      "chiama": 1543,
      "Quindi": 1544,
      "##tero": 1545,
      "ide": 1546,
      "costitu": 1547,
      "Ser": 1548,
      "regis": 1549,
      "attività": 1550,
      "##ION": 1551,
      "##arta": 1552,
      "'": 1553,
      "tran": 1554,
      "torna": 1555,
      "##gio": 1556,
      "Allora": 1557,
      "##mpi": 1558,
      "##lia": 1559,
      "Italia": 1560,
      "##cchio": 1561,
      "ricon": 1562,
      "##tar": 1563,
      "##AR": 1564,
      "##orti": 1565,
      "Dopo": 1566,
      "##ulla": 1567,
      "ricor": 1568,
      "grazie": 1569,
      "km": 1570,
      "##teri": 1571,
      "##-2": 1572,
      "##land": 1573,
      "##vece": 1574,
      "fonda": 1575,
      "itali": 1576,
      "##graf": 1577,
      "seconda": 1578,
      "##altro": 1579,
      "sembra": 1580,
      "##truzione": 1581,
      "##ay": 1582,
      "##telli": 1583,
      "##'?": 1584,
      "##oste": 1585,
      "vole": 1586,
      ":": 1587,
      "##isti": 1588,
      "generale": 1589,
      "dia": 1590,
      "25": 1591,
      "forni": 1592,
      "##ttamente": 1593,
      "Bar": 1594,
      "cambia": 1595,
      "##quad": 1596,
      "##dita": 1597,
      "##est": 1598,
      "ben": 1599,
      "significa": 1600,
      "citta": 1601,
      "relazione": 1602,
      "Sp": 1603,
      "Gio": 1604,
      "importante": 1605,
      "impe": 1606,
      "pote": 1607,
      "allora": 1608,
      "tanto": 1609,
      "24": 1610,
      "##lus": 1611,
      "aggiun": 1612,
      "##==": 1613,
      "##mpa": 1614,
      "scon": 1615,
      "successi": 1616,
      "(1": 1617,
      "##ry": 1618,
      "##gare": 1619,
      "prece": 1620,
      "##oltre": 1621,
      "media": 1622,
      "tecn": 1623,
      "Sc": 1624,
      "Ora": 1625,
      "##iace": 1626,
      "paro": 1627,
      "stai": 1628,
      "gesti": 1629,
      "pra": 1630,
      "ann": 1631,
      "stessa": 1632,
      "##lle": 1633,
      "vuoi": 1634,
      "##OR": 1635,
      "##2,": 1636,
      "figlio": 1637,
      "ore": 1638,
      "istitu": 1639,
      "limi": 1640,
      "impre": 1641,
      "##versi": 1642,
      "##ei": 1643,
      "or": 1644,
      "##ok": 1645,
      "##ministra": 1646,
      "##attro": 1647,
      "##cina": 1648,
      "##ssioni": 1649,
      "rius": 1650,
      "sette": 1651,
      "diversi": 1652,
      "Pri": 1653,
      "En": 1654,
      "##iori": 1655,
      "venne": 1656,
      "uffic": 1657,
      "##vesti": 1658,
      "Gia": 1659,
      "res": 1660,
      "##dici": 1661,
      "##IC": 1662,
      "30": 1663,
      "stabili": 1664,
      "scri": 1665,
      "caratter": 1666,
      "puoi": 1667,
      "II": 1668,
      "richi": 1669,
      "##ly": 1670,
      "##AN": 1671,
      "Presidente": 1672,
      "scel": 1673,
      "##eli": 1674,
      "corso": 1675,
      "produzione": 1676,
      "società": 1677,
      "sor": 1678,
      "ruo": 1679,
      "1.": 1680,
      "organizza": 1681,
      "terra": 1682,
      "svol": 1683,
      "Dis": 1684,
      "san": 1685,
      "vista": 1686,
      "inoltre": 1687,
      "##iale": 1688,
      "##stica": 1689,
      "male": 1690,
      "evi": 1691,
      "##omini": 1692,
      "dato": 1693,
      "##2.": 1694,
      "##ssocia": 1695,
      "##nte": 1696,
      "Ja": 1697,
      "controllo": 1698,
      "lavora": 1699,
      "norma": 1700,
      "avuto": 1701,
      "sito": 1702,
      "Era": 1703,
      "##ger": 1704,
      "sci": 1705,
      "##ccesso": 1706,
      "##3.": 1707,
      "##3,": 1708,
      "paese": 1709,
      "amico": 1710,
      "condizioni": 1711,
      "quad": 1712,
      "madre": 1713,
      "potrebbe": 1714,
      "##accordo": 1715,
      "Ve": 1716,
      "nostri": 1717,
      "invece": 1718,
      "desti": 1719,
      "cul": 1720,
      "ani": 1721,
      "##min": 1722,
      "##fatti": 1723,
      "direttiva": 1724,
      "##1,": 1725,
      "bar": 1726,
      "##chio": 1727,
      "##IT": 1728,
      "##lori": 1729,
      "##volo": 1730,
      "indica": 1731,
      "state": 1732,
      "presso": 1733,
      "Ga": 1734,
      "struttura": 1735,
      "Anche": 1736,
      "##ttere": 1737,
      "##ati": 1738,
      "##cra": 1739,
      "troppo": 1740,
      "##iao": 1741,
      "##dini": 1742,
      "Col": 1743,
      "##CEE": 1744,
      "luogo": 1745,
      "problemi": 1746,
      "mod": 1747,
      "##siasi": 1748,
      "##199": 1749,
      "##AL": 1750,
      "inte": 1751,
      "dir": 1752,
      "Ric": 1753,
      "ambi": 1754,
      "servizio": 1755,
      "fur": 1756,
      "##/2": 1757,
      "posizione": 1758,
      "Bi": 1759,
      "lungo": 1760,
      "##lin": 1761,
      "##5,": 1762,
      "##dice": 1763,
      "##IS": 1764,
      "racc": 1765,
      "qualità": 1766,
      "diritto": 1767,
      "##perto": 1768,
      "quelli": 1769,
      "faci": 1770,
      "##taria": 1771,
      "apri": 1772,
      "##fici": 1773,
      "##terna": 1774,
      "##auto": 1775,
      "qualcuno": 1776,
      "##ts": 1777,
      "parlare": 1778,
      "grandi": 1779,
      "##este": 1780,
      "dicembre": 1781,
      "##pro": 1782,
      "##logia": 1783,
      "##visione": 1784,
      "##ula": 1785,
      "morte": 1786,
      "##isi": 1787,
      "##lli": 1788,
      "quelle": 1789,
      "attraverso": 1790,
      "##entale": 1791,
      "macch": 1792,
      "##isto": 1793,
      "vuole": 1794,
      "##trice": 1795,
      "##mbi": 1796,
      "strada": 1797,
      "##grafo": 1798,
      "otto": 1799,
      "##mane": 1800,
      "##par": 1801,
      "conto": 1802,
      "file": 1803,
      "##itato": 1804,
      "contrib": 1805,
      "letto": 1806,
      "guerra": 1807,
      "ban": 1808,
      "##sh": 1809,
      "##OM": 1810,
      "partecipa": 1811,
      "sociale": 1812,
      "compi": 1813,
      "squad": 1814,
      "progetto": 1815,
      "##des": 1816,
      "quattro": 1817,
      "##icura": 1818,
      "gui": 1819,
      "##ka": 1820,
      "##messo": 1821,
      "##istenza": 1822,
      "##gle": 1823,
      "##In": 1824,
      "modifica": 1825,
      "sosten": 1826,
      "facendo": 1827,
      "appena": 1828,
      "##4,": 1829,
      "milioni": 1830,
      "disposi": 1831,
      "uomini": 1832,
      "##acqu": 1833,
      "Sal": 1834,
      "certo": 1835,
      "giugno": 1836,
      "##sponsa": 1837,
      "gioca": 1838,
      "be": 1839,
      "giorna": 1840,
      "##bbia": 1841,
      "##ppia": 1842,
      "trovare": 1843,
      "##icolo": 1844,
      "##uore": 1845,
      "deter": 1846,
      "docu": 1847,
      "adotta": 1848,
      "effetti": 1849,
      "##vento": 1850,
      "##omi": 1851,
      "dovre": 1852,
      "previs": 1853,
      "##trui": 1854,
      "Dov": 1855,
      "esc": 1856,
      "ucc": 1857,
      "Go": 1858,
      "campo": 1859,
      "consi": 1860,
      "grado": 1861,
      "##len": 1862,
      "signor": 1863,
      "vari": 1864,
      "mano": 1865,
      "misure": 1866,
      "siano": 1867,
      "arti": 1868,
      "uomo": 1869,
      "atten": 1870,
      "lega": 1871,
      "Bene": 1872,
      "##ssero": 1873,
      "elet": 1874,
      "##tifica": 1875,
      "##IN": 1876,
      "##dito": 1877,
      "prendere": 1878,
      "##den": 1879,
      "##--": 1880,
      "##rire": 1881,
      "##uomo": 1882,
      "##6,": 1883,
      "sai": 1884,
      "##vata": 1885,
      "piace": 1886,
      "##deo": 1887,
      "responsa": 1888,
      "ali": 1889,
      "alcune": 1890,
      "dichia": 1891,
      "qualsiasi": 1892,
      "##ppi": 1893,
      "##versa": 1894,
      "##ann": 1895,
      "##naio": 1896,
      "##cando": 1897,
      "Dove": 1898,
      "riconos": 1899,
      "miei": 1900,
      "vengono": 1901,
      "cio": 1902,
      "##voli": 1903,
      "##ffici": 1904,
      "data": 1905,
      "##dra": 1906,
      "##alla": 1907,
      "franc": 1908,
      "termine": 1909,
      "##zzazione": 1910,
      "pron": 1911,
      "Ver": 1912,
      "devono": 1913,
      "##tui": 1914,
      "dec": 1915,
      "of": 1916,
      "Ecco": 1917,
      "tal": 1918,
      "prepa": 1919,
      "##usto": 1920,
      "mesi": 1921,
      "tri": 1922,
      "Abbiamo": 1923,
      "##tron": 1924,
      "Cri": 1925,
      "singo": 1926,
      "/": 1927,
      "situazione": 1928,
      "##poli": 1929,
      "farlo": 1930,
      "bambini": 1931,
      "##ppe": 1932,
      "supp": 1933,
      "##omina": 1934,
      "secolo": 1935,
      "##bbli": 1936,
      "quasi": 1937,
      "musica": 1938,
      "cerca": 1939,
      "##ki": 1940,
      "nu": 1941,
      "##zze": 1942,
      "subito": 1943,
      "##8,": 1944,
      "##dd": 1945,
      "sapere": 1946,
      "meri": 1947,
      "##'...": 1948,
      "pie": 1949,
      "oss": 1950,
      "Hotel": 1951,
      "fron": 1952,
      "New": 1953,
      "##bra": 1954,
      "##onore": 1955,
      "stori": 1956,
      "##9,": 1957,
      "##lano": 1958,
      "nove": 1959,
      "corpo": 1960,
      "##ste": 1961,
      "Ger": 1962,
      "##bilmente": 1963,
      "22": 1964,
      "vostro": 1965,
      "minuti": 1966,
      "##bblica": 1967,
      "##au": 1968,
      "dol": 1969,
      "##tate": 1970,
      "destina": 1971,
      "garanti": 1972,
      "##mentare": 1973,
      "attu": 1974,
      "##ag": 1975,
      "spesso": 1976,
      "registra": 1977,
      "21": 1978,
      "comunica": 1979,
      "Spa": 1980,
      "semplice": 1981,
      "propri": 1982,
      "...": 1983,
      "Sai": 1984,
      "decisione": 1985,
      "”": 1986,
      "necessario": 1987,
      "proposta": 1988,
      "nazionale": 1989,
      "tali": 1990,
      "anima": 1991,
      "##dare": 1992,
      "##operazione": 1993,
      "##uma": 1994,
      "##ea": 1995,
      "##mano": 1996,
      "Qual": 1997,
      "preo": 1998,
      "##cher": 1999,
      "possiamo": 2000,
      "GU": 2001,
      "##7,": 2002,
      "testa": 2003,
      "mostra": 2004,
      "edi": 2005,
      "paragrafo": 2006,
      "capa": 2007,
      "€": 2008,
      "Ciao": 2009,
      "dispiace": 2010,
      "##UR": 2011,
      "donna": 2012,
      "dovrebbe": 2013,
      "##ata": 2014,
      "però": 2015,
      "##ttutto": 2016,
      "##ndo": 2017,
      "immag": 2018,
      "Sto": 2019,
      "##uncia": 2020,
      "##ordine": 2021,
      "##more": 2022,
      "##ZION": 2023,
      "##5.": 2024,
      "##ume": 2025,
      "presen": 2026,
      "ragione": 2027,
      "maggior": 2028,
      "risol": 2029,
      "##interno": 2030,
      "migliore": 2031,
      "compren": 2032,
      "##stico": 2033,
      "confer": 2034,
      "##ner": 2035,
      "faccia": 2036,
      "##sci": 2037,
      "##dro": 2038,
      "quest": 2039,
      "messa": 2040,
      "differ": 2041,
      "##mia": 2042,
      "riguarda": 2043,
      "(2": 2044,
      "##ferimento": 2045,
      "Or": 2046,
      "ucci": 2047,
      "forse": 2048,
      "##4.": 2049,
      "tecno": 2050,
      "possibilità": 2051,
      "stagione": 2052,
      "##esp": 2053,
      "##ettu": 2054,
      "##cer": 2055,
      "corre": 2056,
      "conce": 2057,
      "##bu": 2058,
      "inse": 2059,
      "adesso": 2060,
      "##ir": 2061,
      "##ph": 2062,
      "Forse": 2063,
      "notte": 2064,
      "##dati": 2065,
      "forte": 2066,
      "anti": 2067,
      "nessuno": 2068,
      "##gnora": 2069,
      "##vanti": 2070,
      "##OL": 2071,
      "##cano": 2072,
      "processo": 2073,
      "196": 2074,
      "dip": 2075,
      "velo": 2076,
      "##gazione": 2077,
      "centra": 2078,
      "credo": 2079,
      "diverse": 2080,
      "luglio": 2081,
      "Gran": 2082,
      "Uniti": 2083,
      "Val": 2084,
      "##6.": 2085,
      "relativa": 2086,
      "senso": 2087,
      "trovato": 2088,
      "##mme": 2089,
      "##diale": 2090,
      "&": 2091,
      "cas": 2092,
      "ruolo": 2093,
      "zona": 2094,
      "dagli": 2095,
      "otti": 2096,
      "Roma": 2097,
      "##ccol": 2098,
      "preso": 2099,
      "##torno": 2100,
      "##coli": 2101,
      "##isco": 2102,
      "##vati": 2103,
      "##uola": 2104,
      "##ft": 2105,
      "bre": 2106,
      "(\"": 2107,
      "##rti": 2108,
      "ero": 2109,
      "##fiche": 2110,
      "partire": 2111,
      "##lie": 2112,
      "##ismo": 2113,
      "nuovi": 2114,
      "diritti": 2115,
      "real": 2116,
      "##30": 2117,
      "devo": 2118,
      "compre": 2119,
      "membro": 2120,
      "maggiore": 2121,
      "bian": 2122,
      "Ru": 2123,
      "App": 2124,
      "##50": 2125,
      "##La": 2126,
      "raff": 2127,
      "vicino": 2128,
      "Tor": 2129,
      "poter": 2130,
      "poco": 2131,
      "##bbra": 2132,
      "capo": 2133,
      "testi": 2134,
      "gente": 2135,
      "avrebbe": 2136,
      "linea": 2137,
      "formazione": 2138,
      "furono": 2139,
      "gennaio": 2140,
      "Nella": 2141,
      "Ber": 2142,
      "##don": 2143,
      "studio": 2144,
      "donne": 2145,
      "Pu": 2146,
      "##spi": 2147,
      "pare": 2148,
      "##arlo": 2149,
      "gioco": 2150,
      "ospi": 2151,
      "##gliere": 2152,
      "##ete": 2153,
      "##vani": 2154,
      "##anna": 2155,
      "usci": 2156,
      "##ttori": 2157,
      "Fo": 2158,
      "##av": 2159,
      "##7.": 2160,
      "##ffer": 2161,
      "obietti": 2162,
      "confor": 2163,
      "##hai": 2164,
      "Ad": 2165,
      "##net": 2166,
      "fai": 2167,
      "posi": 2168,
      "fis": 2169,
      "##vamo": 2170,
      "sicuro": 2171,
      "titolo": 2172,
      "##Il": 2173,
      "##lati": 2174,
      "form": 2175,
      "settembre": 2176,
      "##orrei": 2177,
      "Voglio": 2178,
      "ori": 2179,
      "##mbo": 2180,
      "cazzo": 2181,
      "cultura": 2182,
      "##mani": 2183,
      "##8.": 2184,
      "mini": 2185,
      "Lei": 2186,
      "Ges": 2187,
      "##rati": 2188,
      "##allo": 2189,
      "prezzo": 2190,
      "nello": 2191,
      "profession": 2192,
      "dim": 2193,
      "##1.": 2194,
      "procedu": 2195,
      "interessa": 2196,
      "nas": 2197,
      "riusci": 2198,
      "genere": 2199,
      "rappresen": 2200,
      "libera": 2201,
      "##eb": 2202,
      "##rlo": 2203,
      "##gamento": 2204,
      "##turo": 2205,
      "##tenti": 2206,
      "guarda": 2207,
      "numer": 2208,
      "governo": 2209,
      "soprattutto": 2210,
      "##ork": 2211,
      "sera": 2212,
      "moglie": 2213,
      "cuore": 2214,
      "principale": 2215,
      "##tiene": 2216,
      "##les": 2217,
      "dif": 2218,
      "sola": 2219,
      "pazi": 2220,
      "quanti": 2221,
      "##tizia": 2222,
      "nazionali": 2223,
      "##duto": 2224,
      "##ora": 2225,
      "##ionale": 2226,
      "Signor": 2227,
      "nego": 2228,
      "imprese": 2229,
      "tar": 2230,
      "ecc": 2231,
      "effettu": 2232,
      "determina": 2233,
      "##ang": 2234,
      "##hn": 2235,
      "##trimon": 2236,
      "aiuta": 2237,
      "##ide": 2238,
      "##ass": 2239,
      "ener": 2240,
      "esi": 2241,
      "internazionale": 2242,
      "nuove": 2243,
      "##tture": 2244,
      "##gnato": 2245,
      "##unica": 2246,
      "is": 2247,
      "nulla": 2248,
      "sf": 2249,
      "nem": 2250,
      "##zzato": 2251,
      "dovuto": 2252,
      "bilan": 2253,
      "vera": 2254,
      "##lusi": 2255,
      "100": 2256,
      "lingua": 2257,
      "Siamo": 2258,
      "stre": 2259,
      "detta": 2260,
      "CE": 2261,
      "saranno": 2262,
      "##ccupazione": 2263,
      "sape": 2264,
      "marzo": 2265,
      "spi": 2266,
      "##anze": 2267,
      "perf": 2268,
      "parla": 2269,
      "##orse": 2270,
      "classi": 2271,
      "gratui": 2272,
      "regione": 2273,
      "##uri": 2274,
      "ok": 2275,
      "##UE": 2276,
      "##gen": 2277,
      "mas": 2278,
      "rappresenta": 2279,
      "##gne": 2280,
      "prov": 2281,
      "Man": 2282,
      "the": 2283,
      "costrui": 2284,
      "##ficazione": 2285,
      "##ultima": 2286,
      "Ed": 2287,
      "##bum": 2288,
      "amici": 2289,
      "risultati": 2290,
      "utili": 2291,
      "##ttera": 2292,
      "simi": 2293,
      "##dotto": 2294,
      "manten": 2295,
      "forza": 2296,
      "##ggetto": 2297,
      "vio": 2298,
      "squadra": 2299,
      "tuoi": 2300,
      "##iché": 2301,
      "cinque": 2302,
      "##atti": 2303,
      "##rmi": 2304,
      "macchina": 2305,
      "pubblico": 2306,
      "diffici": 2307,
      "##armi": 2308,
      "totale": 2309,
      "specie": 2310,
      "##.\"": 2311,
      "novembre": 2312,
      "DI": 2313,
      "##lata": 2314,
      "Gre": 2315,
      "domanda": 2316,
      "rapi": 2317,
      "##cente": 2318,
      "##bbraio": 2319,
      "##pubblica": 2320,
      "##moni": 2321,
      "##mare": 2322,
      "misura": 2323,
      "Ave": 2324,
      "##tente": 2325,
      "industri": 2326,
      "finale": 2327,
      "##die": 2328,
      "investi": 2329,
      "dare": 2330,
      "##utazione": 2331,
      "##tò": 2332,
      "aiu": 2333,
      "compet": 2334,
      "1,": 2335,
      "ex": 2336,
      "mare": 2337,
      "##cche": 2338,
      "The": 2339,
      "progetti": 2340,
      "almeno": 2341,
      "offer": 2342,
      "propria": 2343,
      "dentro": 2344,
      "valore": 2345,
      "##ultimo": 2346,
      "figli": 2347,
      "collabo": 2348,
      "##incia": 2349,
      "Mol": 2350,
      "settimana": 2351,
      "primi": 2352,
      "sud": 2353,
      "francese": 2354,
      "offre": 2355,
      "##10": 2356,
      "##9.": 2357,
      "cura": 2358,
      "##ko": 2359,
      "##lina": 2360,
      "rivol": 2361,
      "abitanti": 2362,
      "rif": 2363,
      "quadro": 2364,
      "Secon": 2365,
      "##ompa": 2366,
      "spie": 2367,
      "mezzo": 2368,
      "##vio": 2369,
      "punti": 2370,
      "##fico": 2371,
      "23": 2372,
      "Asp": 2373,
      "DEL": 2374,
      "##dico": 2375,
      "passato": 2376,
      "##iscono": 2377,
      "giusto": 2378,
      "##arci": 2379,
      "assicura": 2380,
      "deci": 2381,
      "##pia": 2382,
      "corri": 2383,
      "##nova": 2384,
      "Francia": 2385,
      "invi": 2386,
      "infatti": 2387,
      "Certo": 2388,
      "##it": 2389,
      "princip": 2390,
      "ul": 2391,
      "pensi": 2392,
      "ragazza": 2393,
      "amministra": 2394,
      "viaggio": 2395,
      "##rale": 2396,
      "##Europa": 2397,
      "vostra": 2398,
      "ottobre": 2399,
      "molte": 2400,
      "soldi": 2401,
      "194": 2402,
      "Ness": 2403,
      "buona": 2404,
      "possa": 2405,
      "segna": 2406,
      "video": 2407,
      "meta": 2408,
      "Signore": 2409,
      "lettera": 2410,
      "Ino": 2411,
      "##mette": 2412,
      "##rea": 2413,
      "nonché": 2414,
      "economica": 2415,
      "confron": 2416,
      "##ddis": 2417,
      "##cos": 2418,
      "die": 2419,
      "giovani": 2420,
      "##tego": 2421,
      "##cro": 2422,
      "Andiamo": 2423,
      "discu": 2424,
      "Inter": 2425,
      "trov": 2426,
      "##zienda": 2427,
      "##dine": 2428,
      "proba": 2429,
      "segre": 2430,
      "##ettare": 2431,
      "##viso": 2432,
      "##ster": 2433,
      "ov": 2434,
      "Fon": 2435,
      "##illa": 2436,
      "concor": 2437,
      "Gesù": 2438,
      "luce": 2439,
      "gestione": 2440,
      "Cen": 2441,
      "##chie": 2442,
      "dobbiamo": 2443,
      "##ler": 2444,
      "##\")": 2445,
      "impa": 2446,
      "dimostra": 2447,
      "questione": 2448,
      "##ficio": 2449,
      "##rismo": 2450,
      "affi": 2451,
      "Ris": 2452,
      "Inoltre": 2453,
      "Ben": 2454,
      "##IA": 2455,
      "##eso": 2456,
      "##gon": 2457,
      "Devo": 2458,
      "##eric": 2459,
      "fel": 2460,
      "##tezza": 2461,
      "Tutta": 2462,
      "##II": 2463,
      "##ritorio": 2464,
      "##tendo": 2465,
      "##erienza": 2466,
      "==": 2467,
      "##scri": 2468,
      "##smo": 2469,
      "pol": 2470,
      "devi": 2471,
      "studi": 2472,
      "avven": 2473,
      "ascol": 2474,
      "##ws": 2475,
      "##uale": 2476,
      "sba": 2477,
      "sensi": 2478,
      "febbraio": 2479,
      "##ssere": 2480,
      "proprie": 2481,
      "##acqua": 2482,
      "sede": 2483,
      "##stin": 2484,
      "##licazione": 2485,
      "*": 2486,
      "##lando": 2487,
      "conosci": 2488,
      "futuro": 2489,
      "piccolo": 2490,
      "##tana": 2491,
      "sì": 2492,
      "##vate": 2493,
      "##/9": 2494,
      "avete": 2495,
      "##dy": 2496,
      "Dal": 2497,
      "cooperazione": 2498,
      "rima": 2499,
      "comunque": 2500,
      "31": 2501,
      "##dino": 2502,
      "##mica": 2503,
      "##ende": 2504,
      "Comitato": 2505,
      "serve": 2506,
      "consegu": 2507,
      "Is": 2508,
      "coin": 2509,
      "quo": 2510,
      "##erop": 2511,
      "personale": 2512,
      "tuttavia": 2513,
      "strate": 2514,
      "Ste": 2515,
      "##gente": 2516,
      "prezzi": 2517,
      "stare": 2518,
      "basa": 2519,
      "##rando": 2520,
      "Repubblica": 2521,
      "dimen": 2522,
      "ricev": 2523,
      "rive": 2524,
      "territorio": 2525,
      "28": 2526,
      "50": 2527,
      "associa": 2528,
      "Ter": 2529,
      "##rutta": 2530,
      "scuola": 2531,
      "pla": 2532,
      "ragazzi": 2533,
      "##mania": 2534,
      "2.": 2535,
      "Spe": 2536,
      "##durre": 2537,
      "Regno": 2538,
      "fratello": 2539,
      "##cor": 2540,
      "mondiale": 2541,
      "casi": 2542,
      "##vid": 2543,
      "camera": 2544,
      "meto": 2545,
      "##tur": 2546,
      "sostitu": 2547,
      "Sh": 2548,
      "##inizio": 2549,
      "preve": 2550,
      "tradi": 2551,
      "atta": 2552,
      "John": 2553,
      "##cenza": 2554,
      "##TI": 2555,
      "##unto": 2556,
      "##ggetti": 2557,
      "legis": 2558,
      "Ven": 2559,
      "##telle": 2560,
      "##ziale": 2561,
      "Fer": 2562,
      "chiesa": 2563,
      "avre": 2564,
      "Europa": 2565,
      "trattamento": 2566,
      "##stra": 2567,
      "##mati": 2568,
      "protezione": 2569,
      "Tutti": 2570,
      "##tuto": 2571,
      "legge": 2572,
      "##arono": 2573,
      "29": 2574,
      "Bra": 2575,
      "cercando": 2576,
      "##ware": 2577,
      "fanta": 2578,
      "27": 2579,
      "mese": 2580,
      "realtà": 2581,
      "importanti": 2582,
      "signore": 2583,
      "##ed": 2584,
      "aprile": 2585,
      "autori": 2586,
      "##sce": 2587,
      "##ate": 2588,
      "Potre": 2589,
      "soltanto": 2590,
      "##gioni": 2591,
      "reli": 2592,
      "##artamento": 2593,
      "##ccasione": 2594,
      "cro": 2595,
      "sare": 2596,
      "pratica": 2597,
      "##terà": 2598,
      "##wn": 2599,
      "##astanza": 2600,
      "##mio": 2601,
      "principali": 2602,
      "seguenti": 2603,
      "##20": 2604,
      "##mettere": 2605,
      "##canza": 2606,
      "##merica": 2607,
      "##gan": 2608,
      "Cristo": 2609,
      "##mite": 2610,
      "prego": 2611,
      "##ettato": 2612,
      "regola": 2613,
      "2,": 2614,
      "##bri": 2615,
      "##istiche": 2616,
      "inca": 2617,
      "integra": 2618,
      "##vic": 2619,
      "Ai": 2620,
      "asse": 2621,
      "richiesta": 2622,
      "superiore": 2623,
      "infer": 2624,
      "incontra": 2625,
      "prova": 2626,
      "ragazzo": 2627,
      "lon": 2628,
      "scritto": 2629,
      "metri": 2630,
      "Wil": 2631,
      "##unta": 2632,
      "affron": 2633,
      "migliori": 2634,
      "##TO": 2635,
      "##dri": 2636,
      "PR": 2637,
      "comba": 2638,
      "rila": 2639,
      "bilancio": 2640,
      "Tuttavia": 2641,
      "##art": 2642,
      "aper": 2643,
      "##mentazione": 2644,
      "richie": 2645,
      "scelta": 2646,
      "pass": 2647,
      "trattato": 2648,
      "26": 2649,
      "##care": 2650,
      "disposizioni": 2651,
      "centrale": 2652,
      "ottenere": 2653,
      "##11": 2654,
      "provin": 2655,
      "distrib": 2656,
      "tur": 2657,
      "ur": 2658,
      "Solo": 2659,
      "Prima": 2660,
      "Lui": 2661,
      "Ale": 2662,
      "##80": 2663,
      "fronte": 2664,
      "##bina": 2665,
      "Tro": 2666,
      "##ggiare": 2667,
      "note": 2668,
      "fissa": 2669,
      "Chiesa": 2670,
      "bambino": 2671,
      "fanno": 2672,
      "situato": 2673,
      "versione": 2674,
      "motivo": 2675,
      "##mentari": 2676,
      "dedica": 2677,
      "IN": 2678,
      "##rò": 2679,
      "rile": 2680,
      "figlia": 2681,
      "capacità": 2682,
      "Fin": 2683,
      "civi": 2684,
      "Tutto": 2685,
      "importa": 2686,
      "##ambi": 2687,
      "rispon": 2688,
      "Dobbiamo": 2689,
      "sociali": 2690,
      "##ardi": 2691,
      "!": 2692,
      "##ambito": 2693,
      "parole": 2694,
      "abbastanza": 2695,
      "promo": 2696,
      "liber": 2697,
      "Secondo": 2698,
      "##applicazione": 2699,
      "##formazione": 2700,
      "##ker": 2701,
      "acca": 2702,
      "fondamen": 2703,
      "##resso": 2704,
      "mer": 2705,
      "Pia": 2706,
      "sentito": 2707,
      "bella": 2708,
      "##lazioni": 2709,
      "concer": 2710,
      "guida": 2711,
      "riman": 2712,
      "##segui": 2713,
      "Av": 2714,
      "##ordi": 2715,
      "##anche": 2716,
      "frequ": 2717,
      "cia": 2718,
      "Pe": 2719,
      "ada": 2720,
      "affer": 2721,
      "popolazione": 2722,
      "##ins": 2723,
      "moda": 2724,
      "autorità": 2725,
      "difficile": 2726,
      "Guarda": 2727,
      "camere": 2728,
      "##damento": 2729,
      "##visi": 2730,
      "lavori": 2731,
      "##rente": 2732,
      "##verti": 2733,
      "testo": 2734,
      "demo": 2735,
      "telef": 2736,
      "##mere": 2737,
      "equi": 2738,
      "aiuto": 2739,
      "dipen": 2740,
      "rifi": 2741,
      "pens": 2742,
      "##cy": 2743,
      "cittadini": 2744,
      "obbli": 2745,
      "##ito": 2746,
      "siete": 2747,
      "fal": 2748,
      "soddis": 2749,
      "pari": 2750,
      "Th": 2751,
      "rete": 2752,
      "dan": 2753,
      "Germania": 2754,
      "programmi": 2755,
      "presenti": 2756,
      "Stai": 2757,
      "##ya": 2758,
      "usa": 2759,
      "lan": 2760,
      "##AS": 2761,
      "morto": 2762,
      "economico": 2763,
      "som": 2764,
      "+": 2765,
      "##loro": 2766,
      "spos": 2767,
      "azioni": 2768,
      "##im": 2769,
      "##osito": 2770,
      "ingle": 2771,
      "Scusa": 2772,
      "ultimi": 2773,
      "##ley": 2774,
      "##ggiorna": 2775,
      "##tazioni": 2776,
      "##versità": 2777,
      "dimenti": 2778,
      "riconosci": 2779,
      "entro": 2780,
      "spazio": 2781,
      "identi": 2782,
      "puo": 2783,
      "##ja": 2784,
      "Alla": 2785,
      "sangue": 2786,
      "né": 2787,
      "aspetta": 2788,
      "##trimonio": 2789,
      "Cas": 2790,
      "Sco": 2791,
      "presidente": 2792,
      "bri": 2793,
      "##cisione": 2794,
      "##mità": 2795,
      "terre": 2796,
      "##gge": 2797,
      "funziona": 2798,
      "stanno": 2799,
      "polizia": 2800,
      "##rano": 2801,
      "##muo": 2802,
      "Ce": 2803,
      "Credo": 2804,
      "resid": 2805,
      "##tina": 2806,
      "consul": 2807,
      "trasporto": 2808,
      "deri": 2809,
      "##od": 2810,
      "piacere": 2811,
      "##olo": 2812,
      "##ttato": 2813,
      "temp": 2814,
      "occupa": 2815,
      "accesso": 2816,
      "artico": 2817,
      "necessi": 2818,
      "presenza": 2819,
      "##genza": 2820,
      "venire": 2821,
      "##tono": 2822,
      "##....": 2823,
      "pericolo": 2824,
      "##crizione": 2825,
      "##ccato": 2826,
      "alta": 2827,
      "##ZIONE": 2828,
      "chiamato": 2829,
      "mangia": 2830,
      "mala": 2831,
      "195": 2832,
      "Tre": 2833,
      "##venzione": 2834,
      "fir": 2835,
      "raccon": 2836,
      "politiche": 2837,
      "##vera": 2838,
      "sistemi": 2839,
      "giro": 2840,
      "##ttor": 2841,
      "##TA": 2842,
      "glo": 2843,
      "moder": 2844,
      "osserva": 2845,
      "##ostante": 2846,
      "Je": 2847,
      "Posso": 2848,
      "pos": 2849,
      "oppure": 2850,
      "piedi": 2851,
      "##zzare": 2852,
      "##icro": 2853,
      "##peti": 2854,
      "##mata": 2855,
      "svilupp": 2856,
      "riferimento": 2857,
      "buon": 2858,
      "##gati": 2859,
      "pesca": 2860,
      "norme": 2861,
      "portato": 2862,
      "Aspetta": 2863,
      "locali": 2864,
      "precedente": 2865,
      "posti": 2866,
      "##cle": 2867,
      "Vuoi": 2868,
      "Senti": 2869,
      "capito": 2870,
      "##IO": 2871,
      "##An": 2872,
      "potere": 2873,
      "ries": 2874,
      "##Al": 2875,
      "##ionato": 2876,
      "##tevi": 2877,
      "##ardia": 2878,
      "Fu": 2879,
      "nostre": 2880,
      "piccola": 2881,
      "##arten": 2882,
      "Euro": 2883,
      "basta": 2884,
      "alto": 2885,
      "pian": 2886,
      "pace": 2887,
      "profon": 2888,
      "Giovan": 2889,
      "##scita": 2890,
      "##op": 2891,
      "relativo": 2892,
      "Cla": 2893,
      "op": 2894,
      "minis": 2895,
      "direttamente": 2896,
      "##zzata": 2897,
      "##aria": 2898,
      "rapporto": 2899,
      "presto": 2900,
      "ucciso": 2901,
      "amp": 2902,
      "origina": 2903,
      "comincia": 2904,
      "Ju": 2905,
      "libro": 2906,
      "##dità": 2907,
      "##mail": 2908,
      "gro": 2909,
      "As": 2910,
      "Maria": 2911,
      "vanta": 2912,
      "##vimento": 2913,
      "##ree": 2914,
      "Gen": 2915,
      "##bus": 2916,
      "##ania": 2917,
      "Ge": 2918,
      "disa": 2919,
      "lì": 2920,
      "costi": 2921,
      "##».": 2922,
      "##lub": 2923,
      "sov": 2924,
      "ferro": 2925,
      "risorse": 2926,
      "tornare": 2927,
      "##ande": 2928,
      "navi": 2929,
      "proven": 2930,
      "##ld": 2931,
      "##40": 2932,
      "##tanze": 2933,
      "parola": 2934,
      "concentra": 2935,
      "sele": 2936,
      "##gine": 2937,
      "accordo": 2938,
      "penso": 2939,
      "All": 2940,
      "costruzione": 2941,
      "aiuti": 2942,
      "Fe": 2943,
      "Articolo": 2944,
      "preno": 2945,
      "pubblicato": 2946,
      "##cciamo": 2947,
      "##deva": 2948,
      "terzo": 2949,
      "ecce": 2950,
      "spia": 2951,
      "bagno": 2952,
      "idea": 2953,
      "voce": 2954,
      "##rello": 2955,
      "##logo": 2956,
      "%": 2957,
      "##minare": 2958,
      "europee": 2959,
      "Cal": 2960,
      "soluzione": 2961,
      "pochi": 2962,
      "##lino": 2963,
      "disponibile": 2964,
      "##vie": 2965,
      "manif": 2966,
      "opport": 2967,
      "Davvero": 2968,
      "occhi": 2969,
      "om": 2970,
      "aere": 2971,
      "##ua": 2972,
      "chiesto": 2973,
      "Lon": 2974,
      "##diti": 2975,
      "##duta": 2976,
      "intro": 2977,
      "convin": 2978,
      "nord": 2979,
      "##chite": 2980,
      "##ficato": 2981,
      "comporta": 2982,
      "faccio": 2983,
      "##ggere": 2984,
      "Pensa": 2985,
      "raccol": 2986,
      "locale": 2987,
      "pagina": 2988,
      "##Ar": 2989,
      "##bur": 2990,
      "iso": 2991,
      "obiettivi": 2992,
      "settori": 2993,
      "##OS": 2994,
      "Am": 2995,
      "##larmente": 2996,
      "poten": 2997,
      "resta": 2998,
      "breve": 2999,
      "cel": 3000,
      "fase": 3001,
      "##ick": 3002,
      "assol": 3003,
      "figu": 3004,
      "ac": 3005,
      "sce": 3006,
      "ciasc": 3007,
      "vendita": 3008,
      "##tuna": 3009,
      "##TE": 3010,
      "##gliato": 3011,
      "stile": 3012,
      "##vidu": 3013,
      "terri": 3014,
      "tardi": 3015,
      "relative": 3016,
      "##onorevole": 3017,
      "cristi": 3018,
      "scopo": 3019,
      "interno": 3020,
      "##LE": 3021,
      "##rate": 3022,
      "catego": 3023,
      "speciale": 3024,
      "##yo": 3025,
      "##arte": 3026,
      "##data": 3027,
      "##dì": 3028,
      "completamente": 3029,
      "messo": 3030,
      "Lascia": 3031,
      "pazienti": 3032,
      "US": 3033,
      "acco": 3034,
      "disponibili": 3035,
      "Geo": 3036,
      "avanti": 3037,
      "elementi": 3038,
      "mamma": 3039,
      "uso": 3040,
      "voglia": 3041,
      "varie": 3042,
      "villa": 3043,
      "##ressi": 3044,
      "tecnolog": 3045,
      "coinvol": 3046,
      "40": 3047,
      "clienti": 3048,
      "animali": 3049,
      "Qui": 3050,
      "##terno": 3051,
      "##riera": 3052,
      "regi": 3053,
      "##ttosto": 3054,
      "##usione": 3055,
      "##by": 3056,
      "Conta": 3057,
      "##grafia": 3058,
      "schi": 3059,
      "acqua": 3060,
      "disponibilità": 3061,
      "bio": 3062,
      "essa": 3063,
      "distru": 3064,
      "caratteri": 3065,
      "risposta": 3066,
      "##usi": 3067,
      "garantire": 3068,
      "cucina": 3069,
      "tramite": 3070,
      "gre": 3071,
      "continua": 3072,
      "Servi": 3073,
      "##teriori": 3074,
      "##tretto": 3075,
      "soste": 3076,
      "Via": 3077,
      "Sch": 3078,
      "##LA": 3079,
      "pure": 3080,
      "specia": 3081,
      "##mba": 3082,
      "##rere": 3083,
      "femm": 3084,
      "##ssia": 3085,
      "##risti": 3086,
      "Vene": 3087,
      "##vane": 3088,
      "face": 3089,
      "##tino": 3090,
      "##vvi": 3091,
      "ufficiale": 3092,
      "##ciò": 3093,
      "Mer": 3094,
      "##tuali": 3095,
      "corrispon": 3096,
      "Santa": 3097,
      "?": 3098,
      "bel": 3099,
      "presta": 3100,
      "comunicazione": 3101,
      "##mbe": 3102,
      "##gari": 3103,
      "italiano": 3104,
      "##ambiente": 3105,
      "gruppi": 3106,
      "##udi": 3107,
      "Lin": 3108,
      "##inte": 3109,
      "riten": 3110,
      "geni": 3111,
      "##rla": 3112,
      "Ag": 3113,
      "##into": 3114,
      "veni": 3115,
      "##ssimi": 3116,
      "colpi": 3117,
      "##ric": 3118,
      "##ficare": 3119,
      "##poca": 3120,
      "volon": 3121,
      "##60": 3122,
      "effica": 3123,
      "comunitario": 3124,
      "dor": 3125,
      "##gata": 3126,
      "Ni": 3127,
      "0,": 3128,
      "##omanda": 3129,
      "Corte": 3130,
      "##/8": 3131,
      "succede": 3132,
      "creare": 3133,
      "unico": 3134,
      "Ah": 3135,
      "giuri": 3136,
      "invia": 3137,
      "Wi": 3138,
      "##dale": 3139,
      "##bato": 3140,
      "##atto": 3141,
      "Comp": 3142,
      "paura": 3143,
      "legno": 3144,
      "raggiungere": 3145,
      "scher": 3146,
      "Prop": 3147,
      "3.": 3148,
      "sicura": 3149,
      "signora": 3150,
      "procedura": 3151,
      "esist": 3152,
      "##eroporto": 3153,
      "##IV": 3154,
      "riguardo": 3155,
      "##ccan": 3156,
      "rischio": 3157,
      "sostegno": 3158,
      "COM": 3159,
      "piani": 3160,
      "elettri": 3161,
      "agosto": 3162,
      "proprietà": 3163,
      "##lizzazione": 3164,
      "Rom": 3165,
      "##tito": 3166,
      "regioni": 3167,
      "##mmedia": 3168,
      "preferi": 3169,
      "##tis": 3170,
      "Sembra": 3171,
      "canz": 3172,
      "giovane": 3173,
      "##landa": 3174,
      "essi": 3175,
      "##tone": 3176,
      "fatta": 3177,
      "##dina": 3178,
      "opere": 3179,
      "bru": 3180,
      "eserci": 3181,
      "He": 3182,
      "Can": 3183,
      "##iali": 3184,
      "•": 3185,
      "193": 3186,
      "Dire": 3187,
      "lotta": 3188,
      "##area": 3189,
      "Milano": 3190,
      "treno": 3191,
      "Questi": 3192,
      "##bbi": 3193,
      "bello": 3194,
      "”.": 3195,
      "Nor": 3196,
      "dollari": 3197,
      "##metri": 3198,
      "scopri": 3199,
      "(19": 3200,
      "tema": 3201,
      "appare": 3202,
      "##renza": 3203,
      "##up": 3204,
      "dep": 3205,
      "##uito": 3206,
      "##ccup": 3207,
      "##TR": 3208,
      "4.": 3209,
      "piuttosto": 3210,
      "soggior": 3211,
      "##rci": 3212,
      "Giovanni": 3213,
      "superfic": 3214,
      "commissione": 3215,
      "sfor": 3216,
      "##alisi": 3217,
      "necessità": 3218,
      "riun": 3219,
      "##dimento": 3220,
      "mino": 3221,
      "##genti": 3222,
      "##ug": 3223,
      "modello": 3224,
      "##AM": 3225,
      "sore": 3226,
      "costo": 3227,
      "riguard": 3228,
      "valutazione": 3229,
      "##raggio": 3230,
      "vivere": 3231,
      "strumenti": 3232,
      "##ffi": 3233,
      "mettere": 3234,
      "crescita": 3235,
      "applicazione": 3236,
      "Spagna": 3237,
      "##vina": 3238,
      "##icol": 3239,
      "parere": 3240,
      "##12": 3241,
      "##piso": 3242,
      "potuto": 3243,
      "##erai": 3244,
      "resto": 3245,
      "##teriore": 3246,
      "metà": 3247,
      "eli": 3248,
      "interpre": 3249,
      "##dotti": 3250,
      "York": 3251,
      "mente": 3252,
      "Cro": 3253,
      "fabb": 3254,
      "Tri": 3255,
      "pur": 3256,
      "sugg": 3257,
      "##ung": 3258,
      "americ": 3259,
      "capire": 3260,
      "compon": 3261,
      "##llare": 3262,
      "tempi": 3263,
      "##bro": 3264,
      "umani": 3265,
      "##mai": 3266,
      "##ualizza": 3267,
      "sfi": 3268,
      "Alber": 3269,
      "funzion": 3270,
      "insta": 3271,
      "stessi": 3272,
      "veder": 3273,
      "##dustria": 3274,
      "inglese": 3275,
      "conserva": 3276,
      "##eserci": 3277,
      "pon": 3278,
      "mone": 3279,
      "Camp": 3280,
      "facile": 3281,
      "malatti": 3282,
      "rica": 3283,
      "inseri": 3284,
      "erro": 3285,
      "##ttan": 3286,
      "muo": 3287,
      "avevo": 3288,
      "Es": 3289,
      "marito": 3290,
      "vali": 3291,
      "stazione": 3292,
      "ni": 3293,
      "entrare": 3294,
      "esclusi": 3295,
      "nessun": 3296,
      "Durante": 3297,
      "termini": 3298,
      "Bri": 3299,
      "conne": 3300,
      "lavorare": 3301,
      "fede": 3302,
      "atte": 3303,
      "##enziale": 3304,
      "eventi": 3305,
      "avevano": 3306,
      "##ssemb": 3307,
      "agrico": 3308,
      "##gano": 3309,
      "##ers": 3310,
      "disposizione": 3311,
      "articoli": 3312,
      "settimane": 3313,
      "proposte": 3314,
      "entrambi": 3315,
      "usare": 3316,
      "fam": 3317,
      "risto": 3318,
      "lato": 3319,
      "teso": 3320,
      "##ment": 3321,
      "##nero": 3322,
      "##anizzazione": 3323,
      "scom": 3324,
      "andata": 3325,
      "dietro": 3326,
      "Nuo": 3327,
      "consuma": 3328,
      "##lazzo": 3329,
      "##mera": 3330,
      "colore": 3331,
      "perso": 3332,
      "Bel": 3333,
      "nomina": 3334,
      "Cer": 3335,
      "sepa": 3336,
      "##isola": 3337,
      "coper": 3338,
      "individu": 3339,
      "sve": 3340,
      "##ffa": 3341,
      "davanti": 3342,
      "colon": 3343,
      "comunità": 3344,
      "Puoi": 3345,
      "Devi": 3346,
      "competi": 3347,
      "##ftware": 3348,
      "mal": 3349,
      "deciso": 3350,
      "Nell": 3351,
      "##ny": 3352,
      "Imp": 3353,
      "##ttina": 3354,
      "quei": 3355,
      "diretto": 3356,
      "impie": 3357,
      "##idea": 3358,
      "massima": 3359,
      "andato": 3360,
      "formula": 3361,
      "##tatori": 3362,
      "egli": 3363,
      "sara": 3364,
      "medic": 3365,
      "Har": 3366,
      "##posto": 3367,
      "Ogni": 3368,
      "hotel": 3369,
      "vitti": 3370,
      "EUR": 3371,
      "bigli": 3372,
      "##dire": 3373,
      "puli": 3374,
      "intra": 3375,
      "Cha": 3376,
      "Bru": 3377,
      "Pren": 3378,
      "poiché": 3379,
      "sper": 3380,
      "trasc": 3381,
      "vesti": 3382,
      "##isci": 3383,
      "collo": 3384,
      "mina": 3385,
      "##biettivo": 3386,
      "pensare": 3387,
      "prender": 3388,
      "merito": 3389,
      "##----": 3390,
      "pensato": 3391,
      "gas": 3392,
      "##inf": 3393,
      "##uzioni": 3394,
      "##ras": 3395,
      "##rus": 3396,
      "tito": 3397,
      "##ill": 3398,
      "massimo": 3399,
      "lar": 3400,
      "##umi": 3401,
      "fondo": 3402,
      "##entemente": 3403,
      "provincia": 3404,
      "interess": 3405,
      "sub": 3406,
      "scena": 3407,
      "aspetti": 3408,
      "Giu": 3409,
      "probabilmente": 3410,
      "##lici": 3411,
      "##end": 3412,
      "##orsa": 3413,
      "##enso": 3414,
      "immedia": 3415,
      "esso": 3416,
      "##gel": 3417,
      "funzione": 3418,
      "192": 3419,
      "##uter": 3420,
      "sconfi": 3421,
      "salute": 3422,
      "cele": 3423,
      "blo": 3424,
      "spetta": 3425,
      "acce": 3426,
      "indipen": 3427,
      "relazioni": 3428,
      "##cre": 3429,
      "meccan": 3430,
      "estre": 3431,
      "naturale": 3432,
      "##enna": 3433,
      "teo": 3434,
      "Sca": 3435,
      "preoccupa": 3436,
      "fatti": 3437,
      "acquis": 3438,
      "seguente": 3439,
      "##ssibile": 3440,
      "Niente": 3441,
      "Centro": 3442,
      "##late": 3443,
      "offerte": 3444,
      "stiamo": 3445,
      "porto": 3446,
      "parlato": 3447,
      "Dai": 3448,
      "##attività": 3449,
      "portare": 3450,
      "complessi": 3451,
      "##su": 3452,
      "Ka": 3453,
      "indo": 3454,
      "lasciato": 3455,
      "##GU": 3456,
      "Villa": 3457,
      "##zzando": 3458,
      "##las": 3459,
      "messaggio": 3460,
      "varia": 3461,
      "dici": 3462,
      "Itali": 3463,
      "##ada": 3464,
      "scamb": 3465,
      "##Italia": 3466,
      "set": 3467,
      "ir": 3468,
      "accompa": 3469,
      "##ranea": 3470,
      "Alc": 3471,
      "vede": 3472,
      "supera": 3473,
      "riti": 3474,
      "Vole": 3475,
      "peso": 3476,
      "online": 3477,
      "##ting": 3478,
      "risultato": 3479,
      "Quello": 3480,
      "##eranno": 3481,
      "dise": 3482,
      "multi": 3483,
      "nemmeno": 3484,
      "##mone": 3485,
      "caccia": 3486,
      "quell": 3487,
      "3,": 3488,
      "##arla": 3489,
      "##id": 3490,
      "stampa": 3491,
      "lavoratori": 3492,
      "##oro": 3493,
      "##ttivo": 3494,
      "Des": 3495,
      "caratteristiche": 3496,
      "abband": 3497,
      "carta": 3498,
      "##isa": 3499,
      "##90": 3500,
      "Unito": 3501,
      "crea": 3502,
      "##etra": 3503,
      "##sca": 3504,
      "web": 3505,
      "carriera": 3506,
      "##edi": 3507,
      "evitare": 3508,
      "apparten": 3509,
      "##useo": 3510,
      "migliorare": 3511,
      "tecnica": 3512,
      "verità": 3513,
      "piena": 3514,
      "collega": 3515,
      "monta": 3516,
      "##ET": 3517,
      "spor": 3518,
      "materiali": 3519,
      "permette": 3520,
      "vorrei": 3521,
      "occasione": 3522,
      "##ssico": 3523,
      "commercio": 3524,
      "presti": 3525,
      "##pol": 3526,
      "##tela": 3527,
      "##-0": 3528,
      "controlla": 3529,
      "creazione": 3530,
      "stand": 3531,
      "consenti": 3532,
      "partecip": 3533,
      "profi": 3534,
      "stanza": 3535,
      "Uno": 3536,
      "Capi": 3537,
      "Stu": 3538,
      "El": 3539,
      "##rizzo": 3540,
      "Sul": 3541,
      "##ppon": 3542,
      "Già": 3543,
      "##esione": 3544,
      "basso": 3545,
      "##alità": 3546,
      "europei": 3547,
      "##orno": 3548,
      "batta": 3549,
      "uscire": 3550,
      "##date": 3551,
      "finito": 3552,
      "##damente": 3553,
      "album": 3554,
      "soggiorno": 3555,
      "Franc": 3556,
      "tue": 3557,
      "ordine": 3558,
      "##int": 3559,
      "numerosi": 3560,
      "felice": 3561,
      "##tal": 3562,
      "farma": 3563,
      "belli": 3564,
      "##fficio": 3565,
      "##omma": 3566,
      "modalità": 3567,
      "##ong": 3568,
      "andiamo": 3569,
      "2007": 3570,
      "ordina": 3571,
      "Men": 3572,
      "Qualc": 3573,
      "##ave": 3574,
      "colpa": 3575,
      "campionato": 3576,
      "TV": 3577,
      "##istica": 3578,
      "superficie": 3579,
      "gara": 3580,
      "Così": 3581,
      "##mmobili": 3582,
      "##cati": 3583,
      "Altri": 3584,
      "##industria": 3585,
      "prosp": 3586,
      "valori": 3587,
      "##IL": 3588,
      "##ud": 3589,
      "trasferi": 3590,
      "##glior": 3591,
      "##arto": 3592,
      "lista": 3593,
      "Bro": 3594,
      "difficol": 3595,
      "materiale": 3596,
      "##ppiamo": 3597,
      "##16": 3598,
      "pelle": 3599,
      "telefono": 3600,
      "##70": 3601,
      "##pren": 3602,
      "##tenzione": 3603,
      "##chè": 3604,
      "regime": 3605,
      "bianco": 3606,
      "carica": 3607,
      "##gica": 3608,
      "ricevuto": 3609,
      "giustizia": 3610,
      "mos": 3611,
      "classifica": 3612,
      "raffor": 3613,
      "memo": 3614,
      "principio": 3615,
      "suffici": 3616,
      "Char": 3617,
      "##truttura": 3618,
      "vedo": 3619,
      "aggiorna": 3620,
      "glob": 3621,
      "medico": 3622,
      "cine": 3623,
      "passare": 3624,
      "##lea": 3625,
      "##cata": 3626,
      "ringra": 3627,
      "Geova": 3628,
      "mediante": 3629,
      "##32": 3630,
      "rifle": 3631,
      "##tarie": 3632,
      "##yn": 3633,
      "giochi": 3634,
      "noti": 3635,
      "##uire": 3636,
      "Vai": 3637,
      "genitori": 3638,
      "sani": 3639,
      "contempo": 3640,
      "radio": 3641,
      "##stiche": 3642,
      "coordina": 3643,
      "usato": 3644,
      "##gie": 3645,
      "recu": 3646,
      "vitto": 3647,
      "perc": 3648,
      "dicendo": 3649,
      "##vista": 3650,
      "giornali": 3651,
      "##rigi": 3652,
      "bal": 3653,
      "cercare": 3654,
      "##lusione": 3655,
      "cic": 3656,
      "zone": 3657,
      "##erti": 3658,
      "prende": 3659,
      "roman": 3660,
      "sala": 3661,
      "giar": 3662,
      "cellu": 3663,
      "##estra": 3664,
      "vecchio": 3665,
      "papa": 3666,
      "stava": 3667,
      "agg": 3668,
      "sugli": 3669,
      "Okay": 3670,
      "Stan": 3671,
      "##unico": 3672,
      "##inio": 3673,
      "spese": 3674,
      "consider": 3675,
      "##nia": 3676,
      "##EC": 3677,
      "##tec": 3678,
      "##und": 3679,
      "scienti": 3680,
      "diventare": 3681,
      "domande": 3682,
      "Ban": 3683,
      "##ramente": 3684,
      "livelli": 3685,
      "##umo": 3686,
      "Don": 3687,
      "##minazione": 3688,
      "dieci": 3689,
      "dico": 3690,
      "pertanto": 3691,
      "ama": 3692,
      "##vocato": 3693,
      "##eremo": 3694,
      "giornata": 3695,
      "##ianti": 3696,
      "ge": 3697,
      "##gore": 3698,
      "##ise": 3699,
      "Num": 3700,
      "contatto": 3701,
      "Paesi": 3702,
      "lunga": 3703,
      "tesoro": 3704,
      "responsabilità": 3705,
      "##);": 3706,
      "##sera": 3707,
      "unità": 3708,
      "tru": 3709,
      "visita": 3710,
      "amore": 3711,
      "festa": 3712,
      "tedes": 3713,
      "Casa": 3714,
      "partecipazione": 3715,
      "alcun": 3716,
      "raccomanda": 3717,
      "##muovere": 3718,
      "##ID": 3719,
      "Porto": 3720,
      "classe": 3721,
      "beni": 3722,
      "Buon": 3723,
      "##aiuto": 3724,
      "quarti": 3725,
      "distin": 3726,
      "##ky": 3727,
      "Home": 3728,
      "##onia": 3729,
      "##ser": 3730,
      "##arma": 3731,
      "attenzione": 3732,
      "sentire": 3733,
      "##tiamo": 3734,
      "##tner": 3735,
      "##derà": 3736,
      "riserva": 3737,
      "ritro": 3738,
      "##amore": 3739,
      "viol": 3740,
      "##mamente": 3741,
      "disco": 3742,
      "##ricol": 3743,
      "libertà": 3744,
      "##econom": 3745,
      "piccole": 3746,
      "interro": 3747,
      "##viene": 3748,
      "Ciò": 3749,
      "intera": 3750,
      "##matica": 3751,
      "internazionali": 3752,
      "##ener": 3753,
      "##temi": 3754,
      "##attu": 3755,
      "perdere": 3756,
      "inci": 3757,
      "sottoline": 3758,
      "tip": 3759,
      "pis": 3760,
      "conoscenza": 3761,
      "sosp": 3762,
      "##tella": 3763,
      "incl": 3764,
      "libero": 3765,
      "##35": 3766,
      "##mos": 3767,
      "piccoli": 3768,
      "Traduzione": 3769,
      "fuoco": 3770,
      "software": 3771,
      "##vale": 3772,
      "Nord": 3773,
      "mm": 3774,
      "nota": 3775,
      "##cuzione": 3776,
      "##ee": 3777,
      "computer": 3778,
      "inferiore": 3779,
      "indietro": 3780,
      "giudi": 3781,
      "passo": 3782,
      "##metti": 3783,
      "##estre": 3784,
      "speciali": 3785,
      "Yo": 3786,
      "singolo": 3787,
      "matrimonio": 3788,
      "dimensioni": 3789,
      "fossi": 3790,
      "mandato": 3791,
      "##The": 3792,
      "carrello": 3793,
      "##vali": 3794,
      "##colare": 3795,
      "arre": 3796,
      "Penso": 3797,
      "Dom": 3798,
      "privato": 3799,
      "reale": 3800,
      "tipi": 3801,
      "facciamo": 3802,
      "spagno": 3803,
      "miglia": 3804,
      "oggetto": 3805,
      "diavolo": 3806,
      "professionale": 3807,
      "gener": 3808,
      "permet": 3809,
      "##UN": 3810,
      "##15": 3811,
      "##3)": 3812,
      "##ortazione": 3813,
      "democra": 3814,
      "##utamente": 3815,
      "Jack": 3816,
      "Dani": 3817,
      "interesse": 3818,
      "prime": 3819,
      "belle": 3820,
      "sche": 3821,
      "Acc": 3822,
      "»": 3823,
      "simile": 3824,
      "##omb": 3825,
      "##cella": 3826,
      "italiana": 3827,
      "immagini": 3828,
      "inclu": 3829,
      "##.,": 3830,
      "##OP": 3831,
      "storico": 3832,
      "##ritu": 3833,
      "carattere": 3834,
      "vivo": 3835,
      "##inali": 3836,
      "##del": 3837,
      "##formazioni": 3838,
      "##eff": 3839,
      "scar": 3840,
      "domani": 3841,
      "completa": 3842,
      "##.0": 3843,
      "Poi": 3844,
      "##frica": 3845,
      "Ass": 3846,
      "##MI": 3847,
      "strumento": 3848,
      "##wa": 3849,
      "Ade": 3850,
      "aumen": 3851,
      "##ED": 3852,
      "documenti": 3853,
      "difficoltà": 3854,
      "CON": 3855,
      "##cip": 3856,
      "##fia": 3857,
      "confronti": 3858,
      "peggio": 3859,
      "popolo": 3860,
      "combina": 3861,
      "prove": 3862,
      "collaborazione": 3863,
      "assa": 3864,
      "avrei": 3865,
      "##missa": 3866,
      "##rone": 3867,
      "2000": 3868,
      "Terra": 3869,
      "fortuna": 3870,
      "Decisione": 3871,
      "60": 3872,
      "torn": 3873,
      "##artamenti": 3874,
      "reali": 3875,
      "##ustria": 3876,
      "Mal": 3877,
      "##ct": 3878,
      "nessuna": 3879,
      "influ": 3880,
      "Venezia": 3881,
      "##atore": 3882,
      "##Uni": 3883,
      "venuto": 3884,
      "incre": 3885,
      "capitale": 3886,
      "##dotta": 3887,
      "vai": 3888,
      "direzione": 3889,
      "campa": 3890,
      "sb": 3891,
      "##zzati": 3892,
      "sorella": 3893,
      "##quisi": 3894,
      "migliora": 3895,
      "##ghezza": 3896,
      "studia": 3897,
      "relativi": 3898,
      "intorno": 3899,
      "tranqu": 3900,
      "##obiettivo": 3901,
      "##gnare": 3902,
      "esiste": 3903,
      "religi": 3904,
      "##AC": 3905,
      "prio": 3906,
      "##renze": 3907,
      "##artimento": 3908,
      "chiaro": 3909,
      "nucle": 3910,
      "rispetti": 3911,
      "Ul": 3912,
      "precedenti": 3913,
      "miglior": 3914,
      "##icoli": 3915,
      "feri": 3916,
      "##.000": 3917,
      "veramente": 3918,
      "Vorrei": 3919,
      "##-19": 3920,
      "##inta": 3921,
      "commerciale": 3922,
      "##cola": 3923,
      "arrivare": 3924,
      "XV": 3925,
      "esperienza": 3926,
      "descri": 3927,
      "sole": 3928,
      "Paolo": 3929,
      "possibili": 3930,
      "Forza": 3931,
      "affari": 3932,
      "garan": 3933,
      "##genze": 3934,
      "metodo": 3935,
      "##ranza": 3936,
      "articolo": 3937,
      "maschi": 3938,
      "##vel": 3939,
      "organ": 3940,
      "##shi": 3941,
      "disse": 3942,
      "campagna": 3943,
      "##poni": 3944,
      "##lante": 3945,
      "##tch": 3946,
      "stupi": 3947,
      "##cazione": 3948,
      "##/200": 3949,
      "2015": 3950,
      "esser": 3951,
      "##impor": 3952,
      "nasc": 3953,
      "##tua": 3954,
      "Bal": 3955,
      "sess": 3956,
      "Colle": 3957,
      "##ue": 3958,
      "ritorno": 3959,
      "Poss": 3960,
      "civile": 3961,
      "semplicemente": 3962,
      "##EG": 3963,
      "2016": 3964,
      "elabo": 3965,
      "micro": 3966,
      "##tuni": 3967,
      "##trici": 3968,
      "Poli": 3969,
      "rep": 3970,
      "pieno": 3971,
      "Sam": 3972,
      "chiamata": 3973,
      "medio": 3974,
      "proveni": 3975,
      "negozia": 3976,
      "utilizzare": 3977,
      "potra": 3978,
      "aiutare": 3979,
      "durata": 3980,
      "neanche": 3981,
      "##messa": 3982,
      "avvia": 3983,
      "Parigi": 3984,
      "esten": 3985,
      "motore": 3986,
      "##75": 3987,
      "cm": 3988,
      "regionale": 3989,
      "forme": 3990,
      "##ex": 3991,
      "Ascol": 3992,
      "##ziende": 3993,
      "Bol": 3994,
      "##ght": 3995,
      "età": 3996,
      "##ionali": 3997,
      "Noi": 3998,
      "##iona": 3999,
      "sacco": 4000,
      "utilizzato": 4001,
      "deli": 4002,
      "dallo": 4003,
      "esegui": 4004,
      "massa": 4005,
      "crisi": 4006,
      "codice": 4007,
      "##ssie": 4008,
      "Mic": 4009,
      "precis": 4010,
      "conqu": 4011,
      "dovrebbero": 4012,
      "concorrenza": 4013,
      "##Con": 4014,
      "Super": 4015,
      "veloce": 4016,
      "##presa": 4017,
      "missione": 4018,
      "cioè": 4019,
      "origine": 4020,
      "caff": 4021,
      "sesso": 4022,
      "##monia": 4023,
      "Tom": 4024,
      "eh": 4025,
      "sezione": 4026,
      "volevo": 4027,
      "##gnia": 4028,
      "distanza": 4029,
      "presentato": 4030,
      "##US": 4031,
      "mu": 4032,
      "Hanno": 4033,
      "tempera": 4034,
      "##tann": 4035,
      "Stra": 4036,
      "anch": 4037,
      "Vieni": 4038,
      "velocità": 4039,
      "##lib": 4040,
      "fece": 4041,
      "alber": 4042,
      "##dite": 4043,
      "soff": 4044,
      "Carlo": 4045,
      "90": 4046,
      "Mc": 4047,
      "##impre": 4048,
      "particolarmente": 4049,
      "aperto": 4050,
      "coloro": 4051,
      "##ppio": 4052,
      "##ercati": 4053,
      "forn": 4054,
      "forze": 4055,
      "##enco": 4056,
      "##ppure": 4057,
      "quantità": 4058,
      "filo": 4059,
      "2010": 4060,
      "##ccorre": 4061,
      "##cla": 4062,
      "##atro": 4063,
      "##hotel": 4064,
      "##gante": 4065,
      "vostri": 4066,
      "Tur": 4067,
      "##grafica": 4068,
      "##bba": 4069,
      "contratto": 4070,
      "##ttive": 4071,
      "rafforza": 4072,
      "##veri": 4073,
      "perfetta": 4074,
      "famiglie": 4075,
      "35": 4076,
      "##neo": 4077,
      "x": 4078,
      "attre": 4079,
      "##ammi": 4080,
      "credi": 4081,
      "Ali": 4082,
      "##mine": 4083,
      "##'!": 4084,
      "contesto": 4085,
      "chiede": 4086,
      "informazione": 4087,
      "mg": 4088,
      "ormai": 4089,
      "Chia": 4090,
      "AL": 4091,
      "##ast": 4092,
      "even": 4093,
      "contenuto": 4094,
      "fornire": 4095,
      "manifesta": 4096,
      "verrà": 4097,
      "j": 4098,
      "terzi": 4099,
      "candi": 4100,
      "rende": 4101,
      "potrebbero": 4102,
      "##forme": 4103,
      "fid": 4104,
      "strategia": 4105,
      "successivo": 4106,
      "##terra": 4107,
      "sosteni": 4108,
      "def": 4109,
      "circos": 4110,
      "economici": 4111,
      "Due": 4112,
      "energia": 4113,
      "cresc": 4114,
      "##Le": 4115,
      "strutture": 4116,
      "##45": 4117,
      "comunitaria": 4118,
      "##razioni": 4119,
      "famili": 4120,
      "design": 4121,
      "##alto": 4122,
      "conosce": 4123,
      "passi": 4124,
      "avanza": 4125,
      "##MA": 4126,
      "fiume": 4127,
      "##renti": 4128,
      "2012": 4129,
      "proposito": 4130,
      "dunque": 4131,
      "maggiori": 4132,
      "Internet": 4133,
      "utenti": 4134,
      "proto": 4135,
      "immobili": 4136,
      "maniera": 4137,
      "##tagon": 4138,
      "chiave": 4139,
      "##inato": 4140,
      "desidera": 4141,
      "vive": 4142,
      "##Ho": 4143,
      "ragazze": 4144,
      "dormi": 4145,
      "##ustra": 4146,
      "##telo": 4147,
      "trib": 4148,
      "2014": 4149,
      "aggiunto": 4150,
      "ripro": 4151,
      "Cio": 4152,
      "Monte": 4153,
      "IV": 4154,
      "ps": 4155,
      "##missioni": 4156,
      "##ssuto": 4157,
      "##):": 4158,
      "Win": 4159,
      "Veri": 4160,
      "condu": 4161,
      "serio": 4162,
      "posta": 4163,
      "##car": 4164,
      "risoluzione": 4165,
      "nave": 4166,
      "morire": 4167,
      "verde": 4168,
      "confe": 4169,
      "adegua": 4170,
      "riduzione": 4171,
      "parlar": 4172,
      "appre": 4173,
      "simbo": 4174,
      "##CA": 4175,
      "tecnologia": 4176,
      "Sie": 4177,
      "trovano": 4178,
      "##azioni": 4179,
      "##Qu": 4180,
      "divenne": 4181,
      "2005": 4182,
      "##unti": 4183,
      "progressi": 4184,
      "Pol": 4185,
      "sinistra": 4186,
      "Mio": 4187,
      "Contin": 4188,
      "investimenti": 4189,
      "##censioni": 4190,
      "##85": 4191,
      "##dero": 4192,
      "##ismi": 4193,
      "là": 4194,
      "sopp": 4195,
      "##39": 4196,
      "parlando": 4197,
      "responsabile": 4198,
      "32": 4199,
      "battaglia": 4200,
      "fondi": 4201,
      "##zionata": 4202,
      "##sco": 4203,
      "passe": 4204,
      "fru": 4205,
      "tenere": 4206,
      "pan": 4207,
      "##pote": 4208,
      "politico": 4209,
      "accordi": 4210,
      "2011": 4211,
      "standard": 4212,
      "vanno": 4213,
      "vigore": 4214,
      "##desco": 4215,
      "III": 4216,
      "Ex": 4217,
      "##ccid": 4218,
      "rendere": 4219,
      "pubblici": 4220,
      "##6)": 4221,
      "##icamente": 4222,
      "caval": 4223,
      "Pla": 4224,
      "ebbe": 4225,
      "Cli": 4226,
      "##tional": 4227,
      "prossimo": 4228,
      "posse": 4229,
      "capisco": 4230,
      "Oggi": 4231,
      "##we": 4232,
      "Cap": 4233,
      "mezzi": 4234,
      "##epoca": 4235,
      "linee": 4236,
      "##desi": 4237,
      "vediamo": 4238,
      "sopravvi": 4239,
      "Nessuno": 4240,
      "##riamo": 4241,
      "sali": 4242,
      "##tz": 4243,
      "chiedere": 4244,
      "##inamento": 4245,
      "reci": 4246,
      "emer": 4247,
      "Numero": 4248,
      "##cale": 4249,
      "Adesso": 4250,
      "conven": 4251,
      "differenza": 4252,
      "Del": 4253,
      "lasciare": 4254,
      "prevede": 4255,
      "##ortare": 4256,
      "sap": 4257,
      "##organizzazione": 4258,
      "##essere": 4259,
      "##estro": 4260,
      "estra": 4261,
      "Oli": 4262,
      "accetta": 4263,
      "Sara": 4264,
      "##lico": 4265,
      "armi": 4266,
      "##cino": 4267,
      "2013": 4268,
      "2009": 4269,
      "commerciali": 4270,
      "sfrutta": 4271,
      "cielo": 4272,
      "2008": 4273,
      "##tativo": 4274,
      "nero": 4275,
      "##golo": 4276,
      "stelle": 4277,
      "##nato": 4278,
      "inizi": 4279,
      "##ddo": 4280,
      "attualmente": 4281,
      "documento": 4282,
      "##wi": 4283,
      "##89": 4284,
      "##grazione": 4285,
      "Fra": 4286,
      "##centi": 4287,
      "Cu": 4288,
      "corte": 4289,
      "contiene": 4290,
      "ton": 4291,
      "tari": 4292,
      "##82": 4293,
      "regole": 4294,
      "##/0": 4295,
      "##energia": 4296,
      "##amma": 4297,
      "##bella": 4298,
      "##volta": 4299,
      "lancia": 4300,
      "##14": 4301,
      "##bia": 4302,
      "Gui": 4303,
      "femmini": 4304,
      "semb": 4305,
      "##eravi": 4306,
      "diventa": 4307,
      "##icidio": 4308,
      "##rov": 4309,
      "digi": 4310,
      "##bbene": 4311,
      "destra": 4312,
      "Svi": 4313,
      "Queste": 4314,
      "##ttare": 4315,
      "##Ma": 4316,
      "osta": 4317,
      "realizzazione": 4318,
      "arg": 4319,
      "ferrovia": 4320,
      "simili": 4321,
      "decisioni": 4322,
      "##minato": 4323,
      "arriv": 4324,
      "Vedi": 4325,
      "##dor": 4326,
      "##dano": 4327,
      "##dosi": 4328,
      "partner": 4329,
      "##erv": 4330,
      "div": 4331,
      "Bre": 4332,
      "##dizioni": 4333,
      "tanti": 4334,
      "##ggiato": 4335,
      "ecco": 4336,
      "##voluzione": 4337,
      "##ita": 4338,
      "trasforma": 4339,
      "et": 4340,
      "##dazione": 4341,
      "movimento": 4342,
      "fabbrica": 4343,
      "categoria": 4344,
      "##gliono": 4345,
      "##ortato": 4346,
      "morta": 4347,
      "mercati": 4348,
      "##cin": 4349,
      "##ward": 4350,
      "##tene": 4351,
      "spirito": 4352,
      "##ssociazione": 4353,
      "consiglio": 4354,
      "solle": 4355,
      "­": 4356,
      "##zzano": 4357,
      "operazioni": 4358,
      "tecniche": 4359,
      "paio": 4360,
      "strani": 4361,
      "im": 4362,
      "Minis": 4363,
      "pagamento": 4364,
      "##ath": 4365,
      "##mpia": 4366,
      "merci": 4367,
      "stron": 4368,
      "##landese": 4369,
      "utilizzati": 4370,
      "aziende": 4371,
      "##gliare": 4372,
      "##tuniten": 4373,
      "chilo": 4374,
      "reti": 4375,
      "##America": 4376,
      "mantenere": 4377,
      "vittoria": 4378,
      "aree": 4379,
      "##ens": 4380,
      "Londra": 4381,
      "crede": 4382,
      "umano": 4383,
      "##III": 4384,
      "vino": 4385,
      "son": 4386,
      "##utare": 4387,
      "##87": 4388,
      "##ATO": 4389,
      "2006": 4390,
      "energe": 4391,
      "arriva": 4392,
      "2004": 4393,
      "##enn": 4394,
      "##informazione": 4395,
      "##dam": 4396,
      "##mico": 4397,
      "pom": 4398,
      "perman": 4399,
      "##accesso": 4400,
      "espri": 4401,
      "##gico": 4402,
      "cibo": 4403,
      "Interna": 4404,
      "militare": 4405,
      "Rober": 4406,
      "Sare": 4407,
      "##bita": 4408,
      "##ianto": 4409,
      "##missario": 4410,
      "##escovo": 4411,
      "Auto": 4412,
      "##my": 4413,
      "dio": 4414,
      "##NA": 4415,
      "canzone": 4416,
      "denomina": 4417,
      "innova": 4418,
      "rega": 4419,
      "infine": 4420,
      "colori": 4421,
      "##Ca": 4422,
      "affin": 4423,
      "provve": 4424,
      "principi": 4425,
      "vale": 4426,
      "##hia": 4427,
      "##terni": 4428,
      "statuniten": 4429,
      "##iono": 4430,
      "cond": 4431,
      "nascon": 4432,
      "##collo": 4433,
      "##ccare": 4434,
      "discussione": 4435,
      "##Or": 4436,
      "conseguenza": 4437,
      "ieri": 4438,
      "annun": 4439,
      "Vic": 4440,
      "pronto": 4441,
      "prese": 4442,
      "##batti": 4443,
      "necessaria": 4444,
      "=": 4445,
      "Firenze": 4446,
      "saper": 4447,
      "Eli": 4448,
      "ospiti": 4449,
      "vacanza": 4450,
      "effetto": 4451,
      "Pietro": 4452,
      "uccidere": 4453,
      "sento": 4454,
      "Wo": 4455,
      "solito": 4456,
      "esattamente": 4457,
      "Desi": 4458,
      "affrontare": 4459,
      "##tivamente": 4460,
      "istituzioni": 4461,
      "attrib": 4462,
      "##ALE": 4463,
      "componenti": 4464,
      "permesso": 4465,
      "elettron": 4466,
      "##aren": 4467,
      "atto": 4468,
      "##8/": 4469,
      "andando": 4470,
      "batter": 4471,
      "diso": 4472,
      "##riturismo": 4473,
      "ritor": 4474,
      "riesco": 4475,
      "portata": 4476,
      "musicale": 4477,
      "##boli": 4478,
      "Papa": 4479,
      "venti": 4480,
      "efficace": 4481,
      "Res": 4482,
      "Wal": 4483,
      "##istente": 4484,
      "metter": 4485,
      "questioni": 4486,
      "iniziato": 4487,
      "dro": 4488,
      "sé": 4489,
      "cliente": 4490,
      "##gina": 4491,
      "intende": 4492,
      "Sud": 4493,
      "##ducia": 4494,
      "##erale": 4495,
      "##ppone": 4496,
      "##ervato": 4497,
      "##pà": 4498,
      "concern": 4499,
      "##77": 4500,
      "azienda": 4501,
      "scambio": 4502,
      "vor": 4503,
      "grave": 4504,
      "##tus": 4505,
      "adottato": 4506,
      "##vazione": 4507,
      "dar": 4508,
      "noto": 4509,
      "At": 4510,
      "##erò": 4511,
      "pilo": 4512,
      "##ttino": 4513,
      "Vol": 4514,
      "##86": 4515,
      "comitato": 4516,
      "##orge": 4517,
      "facilmente": 4518,
      "rimane": 4519,
      "##azienda": 4520,
      "fol": 4521,
      "##viamente": 4522,
      "acque": 4523,
      "nonostante": 4524,
      "nega": 4525,
      "tedesco": 4526,
      "##elles": 4527,
      "##raneo": 4528,
      "onore": 4529,
      "##amente": 4530,
      "vie": 4531,
      "britann": 4532,
      "##Fi": 4533,
      "aspetto": 4534,
      "comprende": 4535,
      "Rich": 4536,
      "Tale": 4537,
      "spiaggia": 4538,
      "cambio": 4539,
      "cook": 4540,
      "Cina": 4541,
      "soddisf": 4542,
      "aumento": 4543,
      "continuare": 4544,
      "pressione": 4545,
      "stesse": 4546,
      "oggetti": 4547,
      "vinto": 4548,
      "risulta": 4549,
      "giardino": 4550,
      "supporto": 4551,
      "creato": 4552,
      "##dersi": 4553,
      "diverso": 4554,
      "Europe": 4555,
      "##intera": 4556,
      "ripa": 4557,
      "##zzate": 4558,
      "##zzera": 4559,
      "federa": 4560,
      "Ji": 4561,
      "Esp": 4562,
      "##tes": 4563,
      "##intere": 4564,
      "##tic": 4565,
      "partita": 4566,
      ")": 4567,
      "##gnata": 4568,
      "generali": 4569,
      "##ccidentale": 4570,
      "naturali": 4571,
      "Tran": 4572,
      "Fre": 4573,
      "originale": 4574,
      "trasporti": 4575,
      "##scio": 4576,
      "##34": 4577,
      "interessi": 4578,
      "4,": 4579,
      "##\"?": 4580,
      "pezzi": 4581,
      "scoprire": 4582,
      "provo": 4583,
      "sale": 4584,
      "costru": 4585,
      "##fera": 4586,
      "carb": 4587,
      "terza": 4588,
      "##ruppo": 4589,
      "Dovre": 4590,
      "##tidia": 4591,
      "##logico": 4592,
      "credere": 4593,
      "##sch": 4594,
      "complesso": 4595,
      "Dia": 4596,
      "Pensavo": 4597,
      "caus": 4598,
      "agi": 4599,
      "mappa": 4600,
      "##vita": 4601,
      "##lustra": 4602,
      "##31": 4603,
      "antici": 4604,
      "gratis": 4605,
      "guada": 4606,
      "Quanto": 4607,
      "sho": 4608,
      "##attuazione": 4609,
      "rischi": 4610,
      "##ash": 4611,
      "stia": 4612,
      "imb": 4613,
      "dena": 4614,
      "ridurre": 4615,
      "##esperienza": 4616,
      "##din": 4617,
      "Porta": 4618,
      "banca": 4619,
      "Aggiun": 4620,
      "Nazionale": 4621,
      "formato": 4622,
      "conso": 4623,
      "##ent": 4624,
      "consumatori": 4625,
      "esigenze": 4626,
      "##sidenza": 4627,
      "##trin": 4628,
      "avvic": 4629,
      "##album": 4630,
      "scegliere": 4631,
      "ord": 4632,
      "##25": 4633,
      "genti": 4634,
      "ritar": 4635,
      "##endere": 4636,
      "avesse": 4637,
      "##occupazione": 4638,
      "Vin": 4639,
      "emo": 4640,
      "spiri": 4641,
      "##anzi": 4642,
      "umana": 4643,
      "dra": 4644,
      "benefic": 4645,
      "certifica": 4646,
      "pal": 4647,
      "case": 4648,
      "desider": 4649,
      "##uali": 4650,
      "prossima": 4651,
      "ispi": 4652,
      "##anora": 4653,
      "##cole": 4654,
      "contributo": 4655,
      "importanza": 4656,
      "##cheggio": 4657,
      "##rvi": 4658,
      "##gnati": 4659,
      "##37": 4660,
      "previsto": 4661,
      "ricordi": 4662,
      "Esa": 4663,
      "##spe": 4664,
      "Andre": 4665,
      "Verifica": 4666,
      "Santo": 4667,
      "segue": 4668,
      "din": 4669,
      "##ans": 4670,
      "giocare": 4671,
      "potete": 4672,
      "numerose": 4673,
      "meravi": 4674,
      "adatta": 4675,
      "controllare": 4676,
      "Nei": 4677,
      "malattia": 4678,
      "organizzazioni": 4679,
      "difesa": 4680,
      "Possiamo": 4681,
      "zu": 4682,
      "errore": 4683,
      "protagon": 4684,
      "modelli": 4685,
      "lontano": 4686,
      "compagnia": 4687,
      "##rendo": 4688,
      "##OT": 4689,
      "circon": 4690,
      "sappiamo": 4691,
      "dovrei": 4692,
      "##utili": 4693,
      "mette": 4694,
      "considerazione": 4695,
      "presa": 4696,
      "esperi": 4697,
      "finanziario": 4698,
      "##mini": 4699,
      "##nie": 4700,
      "##ps": 4701,
      "IS": 4702,
      "##84": 4703,
      "##.200": 4704,
      "##diter": 4705,
      "Au": 4706,
      "Servizi": 4707,
      "##ensi": 4708,
      "inda": 4709,
      "##trò": 4710,
      "##ader": 4711,
      "##ssic": 4712,
      "##ellente": 4713,
      "amo": 4714,
      "voleva": 4715,
      "##IM": 4716,
      "##fre": 4717,
      "Anton": 4718,
      "##ames": 4719,
      "Bla": 4720,
      "mono": 4721,
      "Signora": 4722,
      "promuovere": 4723,
      "##zionato": 4724,
      "procedure": 4725,
      "##36": 4726,
      "giappon": 4727,
      "##rina": 4728,
      "Più": 4729,
      "potenzia": 4730,
      "considerato": 4731,
      "necessarie": 4732,
      "minaccia": 4733,
      "##istere": 4734,
      "##pedale": 4735,
      "##nale": 4736,
      "espre": 4737,
      "##mate": 4738,
      "riforma": 4739,
      "motivi": 4740,
      "vado": 4741,
      "Francesco": 4742,
      "Allo": 4743,
      "LA": 4744,
      "##:00": 4745,
      "(4": 4746,
      "##ney": 4747,
      "ricordo": 4748,
      "prefer": 4749,
      "dettagli": 4750,
      "Cana": 4751,
      "Gro": 4752,
      "successivamente": 4753,
      "voluto": 4754,
      "Salve": 4755,
      "racco": 4756,
      "scoperto": 4757,
      "morti": 4758,
      "Molto": 4759,
      "ulteriori": 4760,
      "Gar": 4761,
      "Pron": 4762,
      "Ero": 4763,
      "alcuna": 4764,
      "emen": 4765,
      "denaro": 4766,
      "percorso": 4767,
      "##rlanda": 4768,
      "det": 4769,
      "normale": 4770,
      "riesce": 4771,
      "orienta": 4772,
      "dottore": 4773,
      "como": 4774,
      "##AZIONE": 4775,
      "legisla": 4776,
      "eletto": 4777,
      "vennero": 4778,
      "azione": 4779,
      "##ling": 4780,
      "##canze": 4781,
      "Hen": 4782,
      "consente": 4783,
      "studenti": 4784,
      "scio": 4785,
      "##je": 4786,
      "rico": 4787,
      "##vello": 4788,
      "##economia": 4789,
      "tera": 4790,
      "##estival": 4791,
      "##tutto": 4792,
      "decora": 4793,
      "migliaia": 4794,
      "##asp": 4795,
      "alb": 4796,
      "conforme": 4797,
      "particolari": 4798,
      "dovremmo": 4799,
      "cambiare": 4800,
      "##pensa": 4801,
      "##vendo": 4802,
      "test": 4803,
      "gratuita": 4804,
      "promozione": 4805,
      "Ke": 4806,
      "carico": 4807,
      "##hael": 4808,
      "edizione": 4809,
      "comando": 4810,
      "Ini": 4811,
      "##allegato": 4812,
      "##media": 4813,
      "diretta": 4814,
      "##mazione": 4815,
      "cena": 4816,
      "direttore": 4817,
      "club": 4818,
      "##ricoltura": 4819,
      "bocca": 4820,
      "##ttività": 4821,
      "Frank": 4822,
      "Cerca": 4823,
      "chiu": 4824,
      "giun": 4825,
      "terro": 4826,
      "##tun": 4827,
      "quotidia": 4828,
      "attimo": 4829,
      "doppia": 4830,
      "fondamentale": 4831,
      "Descrizione": 4832,
      "incontro": 4833,
      "Alcuni": 4834,
      "ottenuto": 4835,
      "2018": 4836,
      "Pres": 4837,
      "##mor": 4838,
      "America": 4839,
      "personali": 4840,
      "##bin": 4841,
      "##cento": 4842,
      "funzioni": 4843,
      "191": 4844,
      "##immag": 4845,
      "Preno": 4846,
      "##rali": 4847,
      "capp": 4848,
      "industriale": 4849,
      "##osci": 4850,
      "immediatamente": 4851,
      "mangiare": 4852,
      "volo": 4853,
      "tenuto": 4854,
      "visualizza": 4855,
      "definizione": 4856,
      "##teo": 4857,
      "Quella": 4858,
      "culo": 4859,
      "carne": 4860,
      "soggetti": 4861,
      "##xi": 4862,
      "2001": 4863,
      "##/201": 4864,
      "affinché": 4865,
      "##RA": 4866,
      "2017": 4867,
      "scelto": 4868,
      "fiducia": 4869,
      "##ado": 4870,
      "##99": 4871,
      "ideale": 4872,
      "Oltre": 4873,
      "Sin": 4874,
      ">": 4875,
      "ultimo": 4876,
      "Spi": 4877,
      "battu": 4878,
      "##cell": 4879,
      "globale": 4880,
      "##contro": 4881,
      "Inf": 4882,
      "##osc": 4883,
      "consa": 4884,
      "turi": 4885,
      "arra": 4886,
      "tecnologie": 4887,
      "Ins": 4888,
      "##gresso": 4889,
      "transi": 4890,
      "dura": 4891,
      "farti": 4892,
      "##iano": 4893,
      "Basta": 4894,
      "fan": 4895,
      "capelli": 4896,
      "seguire": 4897,
      "provato": 4898,
      "pisto": 4899,
      "prospetti": 4900,
      "ugu": 4901,
      "Er": 4902,
      "##inare": 4903,
      "affa": 4904,
      "condizione": 4905,
      "edifici": 4906,
      "##blio": 4907,
      "##vola": 4908,
      "##matico": 4909,
      "Mamma": 4910,
      "##sì": 4911,
      "##ianco": 4912,
      "territori": 4913,
      "Mos": 4914,
      "##\"),": 4915,
      "archite": 4916,
      "vogliono": 4917,
      "##gin": 4918,
      "piscina": 4919,
      "composto": 4920,
      "##erie": 4921,
      "catto": 4922,
      "utile": 4923,
      "conosciuto": 4924,
      "Padre": 4925,
      "##cone": 4926,
      "tener": 4927,
      "vecchia": 4928,
      "diversa": 4929,
      "poteva": 4930,
      "mattina": 4931,
      "##opp": 4932,
      "stasera": 4933,
      "cata": 4934,
      "##tù": 4935,
      "dibatti": 4936,
      "prestazioni": 4937,
      "guard": 4938,
      "Tutte": 4939,
      "realizzato": 4940,
      "conoscere": 4941,
      "Ascolta": 4942,
      "##appro": 4943,
      "tradizione": 4944,
      "leggere": 4945,
      "circo": 4946,
      "condivi": 4947,
      "Qualcuno": 4948,
      "calcio": 4949,
      "##ks": 4950,
      "##ot": 4951,
      "abbandon": 4952,
      "##CI": 4953,
      "Por": 4954,
      "buono": 4955,
      "regno": 4956,
      "80": 4957,
      "##omenti": 4958,
      "##ant": 4959,
      "##messi": 4960,
      "insegn": 4961,
      "rapporti": 4962,
      "##ttimo": 4963,
      "Fai": 4964,
      "concre": 4965,
      "oli": 4966,
      "alterna": 4967,
      "compito": 4968,
      "##dimenti": 4969,
      "ambiente": 4970,
      "##anni": 4971,
      "terreno": 4972,
      "dogan": 4973,
      "flu": 4974,
      "fossero": 4975,
      "500": 4976,
      "recente": 4977,
      "impo": 4978,
      "scusa": 4979,
      "##istitu": 4980,
      "specifica": 4981,
      "##xelles": 4982,
      "schia": 4983,
      "retro": 4984,
      "Sape": 4985,
      "iniziative": 4986,
      "indipendente": 4987,
      "costante": 4988,
      "David": 4989,
      "##yl": 4990,
      "roba": 4991,
      "televisi": 4992,
      "Arri": 4993,
      "##verno": 4994,
      "Mia": 4995,
      "appartamento": 4996,
      "Alex": 4997,
      "##lievo": 4998,
      "##ys": 4999,
      "provenienti": 5000,
      "##orig": 5001,
      "rifer": 5002,
      "fratelli": 5003,
      "strano": 5004,
      "dà": 5005,
      "##ciamo": 5006,
      "##3/": 5007,
      "45": 5008,
      "episo": 5009,
      "venga": 5010,
      "##ministrazione": 5011,
      "oro": 5012,
      "riporta": 5013,
      "##iando": 5014,
      "##ssore": 5015,
      "##giorno": 5016,
      "località": 5017,
      "##detto": 5018,
      "passaggio": 5019,
      "##gistra": 5020,
      "dispone": 5021,
      "discip": 5022,
      "##unale": 5023,
      "##word": 5024,
      "Peter": 5025,
      "##EI": 5026,
      "36": 5027,
      "vir": 5028,
      "colla": 5029,
      "organi": 5030,
      "torneo": 5031,
      "##ore": 5032,
      "##ZIONI": 5033,
      "Mentre": 5034,
      "installa": 5035,
      "Avete": 5036,
      "produttori": 5037,
      "distribuzione": 5038,
      "riunione": 5039,
      "rie": 5040,
      "##non": 5041,
      "funzionamento": 5042,
      "ristorante": 5043,
      "annuncia": 5044,
      "distretto": 5045,
      "Nelle": 5046,
      "Mor": 5047,
      "Egli": 5048,
      "##reste": 5049,
      "addi": 5050,
      "##cera": 5051,
      "auton": 5052,
      "specifiche": 5053,
      "##ratori": 5054,
      "considerando": 5055,
      "coppia": 5056,
      "CES": 5057,
      "Pon": 5058,
      "##cali": 5059,
      "##eth": 5060,
      "##Non": 5061,
      "ricos": 5062,
      "Gol": 5063,
      "##ratorio": 5064,
      "Negli": 5065,
      "Hol": 5066,
      "perfetto": 5067,
      "situata": 5068,
      "figura": 5069,
      "Vis": 5070,
      "sviluppa": 5071,
      "##tensione": 5072,
      "dimin": 5073,
      "aria": 5074,
      "##Re": 5075,
      "sovra": 5076,
      "##deri": 5077,
      "labo": 5078,
      "parco": 5079,
      "##urgo": 5080,
      "ritiene": 5081,
      "villaggio": 5082,
      "rosso": 5083,
      "paga": 5084,
      "##eld": 5085,
      "fres": 5086,
      "propone": 5087,
      "Capo": 5088,
      "##sile": 5089,
      "Sve": 5090,
      "##ultura": 5091,
      "riferi": 5092,
      "PER": 5093,
      "##stro": 5094,
      "rientra": 5095,
      "##1)": 5096,
      "##AP": 5097,
      "Michael": 5098,
      "##dibile": 5099,
      "dichiarazione": 5100,
      "geo": 5101,
      "rispondere": 5102,
      "costa": 5103,
      "##ssime": 5104,
      "bus": 5105,
      "governa": 5106,
      "Lavo": 5107,
      "sullo": 5108,
      "##cì": 5109,
      "eri": 5110,
      "##attuale": 5111,
      "##49": 5112,
      "ripren": 5113,
      "Natale": 5114,
      "divertente": 5115,
      "Sha": 5116,
      "raccolta": 5117,
      "##fferta": 5118,
      "rilascia": 5119,
      "##done": 5120,
      "##inse": 5121,
      "##wo": 5122,
      "Mus": 5123,
      "scor": 5124,
      "blu": 5125,
      "inn": 5126,
      "obiettivo": 5127,
      "##entali": 5128,
      "70": 5129,
      "contrario": 5130,
      "##centuale": 5131,
      "190": 5132,
      "##ssare": 5133,
      "Ele": 5134,
      "Voi": 5135,
      "confli": 5136,
      "finanziamento": 5137,
      "Sar": 5138,
      "##impresa": 5139,
      "accia": 5140,
      "##can": 5141,
      "##cura": 5142,
      "red": 5143,
      "##gimento": 5144,
      "volontà": 5145,
      "##pevole": 5146,
      "minimo": 5147,
      "ricorda": 5148,
      "Proprio": 5149,
      "2002": 5150,
      "urb": 5151,
      "trans": 5152,
      "raggiunto": 5153,
      "##ggiamento": 5154,
      "Immag": 5155,
      "##trà": 5156,
      "##Università": 5157,
      "Hu": 5158,
      "##CO": 5159,
      "fen": 5160,
      "##ffico": 5161,
      "##osco": 5162,
      "qualunque": 5163,
      "dina": 5164,
      "dipartimento": 5165,
      "ing": 5166,
      "##42": 5167,
      "supple": 5168,
      "##stici": 5169,
      "completo": 5170,
      "##cuti": 5171,
      "AC": 5172,
      "Bruxelles": 5173,
      "requisi": 5174,
      "fondamentali": 5175,
      "lie": 5176,
      "Napoli": 5177,
      "gri": 5178,
      "##ach": 5179,
      "5.": 5180,
      "reso": 5181,
      "Ten": 5182,
      "##ettati": 5183,
      "Disponi": 5184,
      "parli": 5185,
      "luoghi": 5186,
      "fle": 5187,
      "fiori": 5188,
      "Grande": 5189,
      "cercato": 5190,
      "##88": 5191,
      "volume": 5192,
      ";": 5193,
      "Pic": 5194,
      "##ssato": 5195,
      "ana": 5196,
      "possano": 5197,
      "##derti": 5198,
      "##mici": 5199,
      "metodi": 5200,
      "menti": 5201,
      "principalmente": 5202,
      "##ssieme": 5203,
      "Hi": 5204,
      "dovrà": 5205,
      "##lendi": 5206,
      "bordo": 5207,
      "##gini": 5208,
      "##ham": 5209,
      "Phi": 5210,
      "mobili": 5211,
      "band": 5212,
      "##glianza": 5213,
      "##wer": 5214,
      "##gramma": 5215,
      "sostanze": 5216,
      "##raele": 5217,
      "scorso": 5218,
      "sapevo": 5219,
      "ub": 5220,
      "##ettore": 5221,
      "##orld": 5222,
      "Grecia": 5223,
      "finita": 5224,
      "femminile": 5225,
      "traccia": 5226,
      "diverti": 5227,
      "colleghi": 5228,
      "legislazione": 5229,
      "##esercito": 5230,
      "sposa": 5231,
      "##fra": 5232,
      "partenza": 5233,
      "prof": 5234,
      "cattura": 5235,
      "00": 5236,
      "incora": 5237,
      "##Se": 5238,
      "mira": 5239,
      "memoria": 5240,
      "altra": 5241,
      "guardare": 5242,
      "ere": 5243,
      "000": 5244,
      "falli": 5245,
      "##IG": 5246,
      "##Per": 5247,
      "sinda": 5248,
      "##esimo": 5249,
      "presentare": 5250,
      "dolore": 5251,
      "proi": 5252,
      "##pore": 5253,
      "##aff": 5254,
      "##”.": 5255,
      "Informazioni": 5256,
      "moto": 5257,
      "medie": 5258,
      "provare": 5259,
      "inizio": 5260,
      "visitatori": 5261,
      "stavo": 5262,
      "segno": 5263,
      "potenza": 5264,
      "campi": 5265,
      "consumo": 5266,
      "##79": 5267,
      "dele": 5268,
      "finanziaria": 5269,
      "tutela": 5270,
      "sarebbero": 5271,
      "gol": 5272,
      "criteri": 5273,
      "##bbio": 5274,
      "##OG": 5275,
      "farmi": 5276,
      "##arri": 5277,
      "attuale": 5278,
      "politici": 5279,
      "##ggiata": 5280,
      "confi": 5281,
      "##metto": 5282,
      "realizzare": 5283,
      "5,": 5284,
      "1999": 5285,
      "##zzino": 5286,
      "giusta": 5287,
      "ridu": 5288,
      "##SE": 5289,
      "notizia": 5290,
      "##ance": 5291,
      "Sol": 5292,
      "##72": 5293,
      "quartiere": 5294,
      "Serie": 5295,
      "certa": 5296,
      "Nessun": 5297,
      "##terie": 5298,
      "Conte": 5299,
      "Giuse": 5300,
      "speri": 5301,
      "pagare": 5302,
      "panora": 5303,
      "##fr": 5304,
      "colazione": 5305,
      "##lterra": 5306,
      "vuo": 5307,
      "##cchie": 5308,
      "maggioranza": 5309,
      "bro": 5310,
      "dolce": 5311,
      "##mis": 5312,
      "compro": 5313,
      "##ves": 5314,
      "##rne": 5315,
      "Quanti": 5316,
      "potrà": 5317,
      "credito": 5318,
      "##-201": 5319,
      "satelli": 5320,
      "finanziari": 5321,
      "commercia": 5322,
      "lingue": 5323,
      "semi": 5324,
      "piane": 5325,
      "preoccup": 5326,
      "##roni": 5327,
      "culturale": 5328,
      "conclu": 5329,
      "conti": 5330,
      "pran": 5331,
      "quarto": 5332,
      "##mino": 5333,
      "rimanere": 5334,
      "premio": 5335,
      "##rli": 5336,
      "##bal": 5337,
      "##logica": 5338,
      "##male": 5339,
      "##76": 5340,
      "##come": 5341,
      "negozio": 5342,
      "##nella": 5343,
      "nuovamente": 5344,
      "##ffe": 5345,
      "ufficio": 5346,
      "metro": 5347,
      "##CH": 5348,
      "danno": 5349,
      "##zioso": 5350,
      "dose": 5351,
      "Mostra": 5352,
      "traffico": 5353,
      "modu": 5354,
      "notizie": 5355,
      "Bur": 5356,
      "perdita": 5357,
      "Min": 5358,
      "prigione": 5359,
      "##venire": 5360,
      "libri": 5361,
      "castello": 5362,
      "appartamenti": 5363,
      "##ony": 5364,
      "Pal": 5365,
      "##ub": 5366,
      "##gallo": 5367,
      "ringrazia": 5368,
      "##ons": 5369,
      "2019": 5370,
      "Bor": 5371,
      "##unt": 5372,
      "##ux": 5373,
      "appa": 5374,
      "Pra": 5375,
      "miglioramento": 5376,
      "ammi": 5377,
      "Totale": 5378,
      "##nali": 5379,
      "gamma": 5380,
      "Giappone": 5381,
      "vet": 5382,
      "Museo": 5383,
      "mancanza": 5384,
      "##importanza": 5385,
      "##ller": 5386,
      "restitu": 5387,
      "Ki": 5388,
      "compagni": 5389,
      "Italiano": 5390,
      "##guardo": 5391,
      "300": 5392,
      "##ctor": 5393,
      "##ensa": 5394,
      "lettere": 5395,
      "##gliata": 5396,
      "2003": 5397,
      "soluzioni": 5398,
      "tecnico": 5399,
      "arrivato": 5400,
      "vogliamo": 5401,
      "Alle": 5402,
      "##immagine": 5403,
      "Bibbia": 5404,
      "tasso": 5405,
      "Paul": 5406,
      "partecipare": 5407,
      "intelli": 5408,
      "##46": 5409,
      "enti": 5410,
      "Giuseppe": 5411,
      "doppio": 5412,
      "##erato": 5413,
      "##scal": 5414,
      "##enziali": 5415,
      "ovvero": 5416,
      "salva": 5417,
      "##cò": 5418,
      "##tena": 5419,
      "##DE": 5420,
      "modifiche": 5421,
      "straordina": 5422,
      "chilometri": 5423,
      "##»,": 5424,
      "Cin": 5425,
      "doveva": 5426,
      "##cate": 5427,
      "minuto": 5428,
      "##mando": 5429,
      "valuta": 5430,
      "vittime": 5431,
      "moni": 5432,
      "##ars": 5433,
      "XX": 5434,
      "##way": 5435,
      "risolvere": 5436,
      "turno": 5437,
      "pietra": 5438,
      "##utato": 5439,
      "‘": 5440,
      "##Ag": 5441,
      "centi": 5442,
      "cento": 5443,
      "##enica": 5444,
      "occorre": 5445,
      "assolutamente": 5446,
      "##uga": 5447,
      "##ssemblea": 5448,
      "dialogo": 5449,
      "##38": 5450,
      "vostre": 5451,
      "##berg": 5452,
      "##ddio": 5453,
      "condanna": 5454,
      "##arco": 5455,
      "unica": 5456,
      "Ko": 5457,
      "##qua": 5458,
      "##simo": 5459,
      "bic": 5460,
      "SE": 5461,
      "Para": 5462,
      "##liam": 5463,
      "Siete": 5464,
      "CEE": 5465,
      "respi": 5466,
      "Russia": 5467,
      "Apri": 5468,
      "##cel": 5469,
      "Bon": 5470,
      "pezzo": 5471,
      "porti": 5472,
      "speranza": 5473,
      "##teranno": 5474,
      "##orme": 5475,
      "aggi": 5476,
      "##chiamo": 5477,
      "piazza": 5478,
      "operatori": 5479,
      "##andosi": 5480,
      "avrà": 5481,
      "sottop": 5482,
      "necessari": 5483,
      "impianti": 5484,
      "##lava": 5485,
      "dimensione": 5486,
      "arres": 5487,
      "essendo": 5488,
      "assieme": 5489,
      "EC": 5490,
      "##sili": 5491,
      "fri": 5492,
      "##ggeri": 5493,
      "ufficiali": 5494,
      "aperta": 5495,
      "\"\"": 5496,
      "Potrebbe": 5497,
      "liqui": 5498,
      "analisi": 5499,
      "scoper": 5500,
      "Stre": 5501,
      "offrire": 5502,
      "rispar": 5503,
      "##ple": 5504,
      "costituisce": 5505,
      "##vante": 5506,
      "##lizzato": 5507,
      "On": 5508,
      "effici": 5509,
      "##tanea": 5510,
      "##ther": 5511,
      "Lou": 5512,
      "fonte": 5513,
      "##utilizzo": 5514,
      "pubblicazione": 5515,
      "Entra": 5516,
      "aumentare": 5517,
      "##cerdo": 5518,
      "este": 5519,
      "pistola": 5520,
      "sel": 5521,
      "##7/": 5522,
      "iniziare": 5523,
      "partito": 5524,
      "IL": 5525,
      "Contro": 5526,
      "Unite": 5527,
      "##analisi": 5528,
      "acciaio": 5529,
      "##.)": 5530,
      "##vers": 5531,
      "verifica": 5532,
      "##5)": 5533,
      "39": 5534,
      "alberghi": 5535,
      "miliardi": 5536,
      "Goo": 5537,
      "esse": 5538,
      "##erebbe": 5539,
      "Gruppo": 5540,
      "singoli": 5541,
      "appo": 5542,
      "##ington": 5543,
      "Cons": 5544,
      "Paese": 5545,
      "date": 5546,
      "nomi": 5547,
      "##ms": 5548,
      "##intero": 5549,
      "scala": 5550,
      "carte": 5551,
      "Marco": 5552,
      "##IONE": 5553,
      "danni": 5554,
      "sostenere": 5555,
      "##gro": 5556,
      "##uli": 5557,
      "faro": 5558,
      "popolare": 5559,
      "##ghilterra": 5560,
      "dovresti": 5561,
      "economiche": 5562,
      "tren": 5563,
      "Cara": 5564,
      "estremamente": 5565,
      "principe": 5566,
      "pranzo": 5567,
      "Trattato": 5568,
      "chiunque": 5569,
      "##teca": 5570,
      "fasc": 5571,
      "##2)": 5572,
      "##BI": 5573,
      "vedi": 5574,
      "##illo": 5575,
      "diplo": 5576,
      "leggi": 5577,
      "##ccessi": 5578,
      "idro": 5579,
      "##egli": 5580,
      "idee": 5581,
      "contribu": 5582,
      "James": 5583,
      "##tile": 5584,
      "aprire": 5585,
      "UE": 5586,
      "##var": 5587,
      "vinci": 5588,
      "dibattito": 5589,
      "clin": 5590,
      "siti": 5591,
      "##volmente": 5592,
      "##gnano": 5593,
      "Spero": 5594,
      "fantastico": 5595,
      "##cesi": 5596,
      "Volevo": 5597,
      "cookie": 5598,
      "temperatura": 5599,
      "barca": 5600,
      "Ricerca": 5601,
      "Senza": 5602,
      "segreto": 5603,
      "leader": 5604,
      "##duti": 5605,
      "ristruttura": 5606,
      "Infatti": 5607,
      "squadre": 5608,
      "capitano": 5609,
      "orientale": 5610,
      "scompar": 5611,
      "conver": 5612,
      "splendi": 5613,
      "statunitense": 5614,
      "illustra": 5615,
      "contenuti": 5616,
      "##Pro": 5617,
      "##pria": 5618,
      "avessi": 5619,
      "Za": 5620,
      "Soci": 5621,
      "riuni": 5622,
      "Giochi": 5623,
      "indis": 5624,
      "gravi": 5625,
      "##ICA": 5626,
      "infor": 5627,
      "concl": 5628,
      "##pica": 5629,
      "garanzia": 5630,
      "Prezzo": 5631,
      "bere": 5632,
      "richieste": 5633,
      "pul": 5634,
      "##enne": 5635,
      "scapp": 5636,
      "##edificio": 5637,
      "voli": 5638,
      "##-5": 5639,
      "Maggio": 5640,
      "##pero": 5641,
      "gratuito": 5642,
      "##tichetta": 5643,
      "##trutture": 5644,
      "Coppa": 5645,
      "merda": 5646,
      "Altre": 5647,
      "Ado": 5648,
      "fidanza": 5649,
      "vantaggi": 5650,
      "meravigli": 5651,
      "priorità": 5652,
      "mona": 5653,
      "##miche": 5654,
      "lunghezza": 5655,
      "clima": 5656,
      "##uol": 5657,
      "01": 5658,
      "grosso": 5659,
      "##erre": 5660,
      "##ssica": 5661,
      "##.3": 5662,
      "venuta": 5663,
      "elezioni": 5664,
      "influenza": 5665,
      "chiuso": 5666,
      "fonti": 5667,
      "kg": 5668,
      "spiace": 5669,
      "IT": 5670,
      "dedicato": 5671,
      "##istruzione": 5672,
      "##pie": 5673,
      "capitolo": 5674,
      "Semp": 5675,
      "##IF": 5676,
      "##sero": 5677,
      "##vile": 5678,
      "spedizione": 5679,
      "##arg": 5680,
      "##hanno": 5681,
      "##ball": 5682,
      "latte": 5683,
      "soddisfa": 5684,
      "corrente": 5685,
      "##-4": 5686,
      "distur": 5687,
      "##mbia": 5688,
      "industriali": 5689,
      "##estate": 5690,
      "##\").": 5691,
      "##viti": 5692,
      "finire": 5693,
      "Svizzera": 5694,
      "Ori": 5695,
      "ria": 5696,
      "##lusioni": 5697,
      "Giusto": 5698,
      "cur": 5699,
      "macchine": 5700,
      "##gate": 5701,
      "farà": 5702,
      "campione": 5703,
      "occup": 5704,
      "beh": 5705,
      "##viamo": 5706,
      "Ann": 5707,
      "Cosi": 5708,
      "##dows": 5709,
      "sig": 5710,
      "abbiano": 5711,
      "ciascuno": 5712,
      "rifu": 5713,
      "palazzo": 5714,
      "Raga": 5715,
      "assistenza": 5716,
      "Sho": 5717,
      "##cal": 5718,
      "##Pa": 5719,
      "manu": 5720,
      "progetta": 5721,
      "Emi": 5722,
      "Lib": 5723,
      "risa": 5724,
      "##imento": 5725,
      "Camera": 5726,
      "##fron": 5727,
      "centri": 5728,
      "##seguito": 5729,
      "##200": 5730,
      "feste": 5731,
      "canti": 5732,
      "George": 5733,
      "cosidd": 5734,
      "viva": 5735,
      "##gendo": 5736,
      "Qua": 5737,
      "fia": 5738,
      "##troduzione": 5739,
      "dimenticato": 5740,
      "contea": 5741,
      "##--------": 5742,
      "##vest": 5743,
      "##No": 5744,
      "##mentale": 5745,
      "Alberghi": 5746,
      "Sy": 5747,
      "##8)": 5748,
      "##RE": 5749,
      "##alleria": 5750,
      "destinati": 5751,
      "corsa": 5752,
      "controlli": 5753,
      "ricevere": 5754,
      "##mber": 5755,
      "scambi": 5756,
      "agenti": 5757,
      "preventi": 5758,
      "Data": 5759,
      "Buona": 5760,
      "##venuto": 5761,
      "##prese": 5762,
      "##dete": 5763,
      "uccider": 5764,
      "##ersi": 5765,
      "##damenti": 5766,
      "William": 5767,
      "Deve": 5768,
      "##ander": 5769,
      "lago": 5770,
      "##ilm": 5771,
      "Primo": 5772,
      "beneficia": 5773,
      "zucch": 5774,
      "##bole": 5775,
      "##SS": 5776,
      "Club": 5777,
      "##UT": 5778,
      "##ditori": 5779,
      "##”,": 5780,
      "alloggi": 5781,
      "##resta": 5782,
      "chiaramente": 5783,
      "specifici": 5784,
      "versa": 5785,
      "##gnori": 5786,
      "##lanti": 5787,
      "tornato": 5788,
      "regionali": 5789,
      "ambientale": 5790,
      "rappresentanti": 5791,
      "##umere": 5792,
      "##erare": 5793,
      "Angel": 5794,
      "riguardanti": 5795,
      "restare": 5796,
      "comunitarie": 5797,
      "rapidamente": 5798,
      "colpo": 5799,
      "##forte": 5800,
      "diventato": 5801,
      "avrebbero": 5802,
      "conseguenze": 5803,
      "##ces": 5804,
      "fenom": 5805,
      "artisti": 5806,
      "proteggere": 5807,
      "tour": 5808,
      "inna": 5809,
      "##Hotel": 5810,
      "mura": 5811,
      "veicoli": 5812,
      "##zialmente": 5813,
      "bambina": 5814,
      "##IZ": 5815,
      "caffè": 5816,
      "’": 5817,
      "Pronto": 5818,
      "##eratore": 5819,
      "Cir": 5820,
      "riconoscimento": 5821,
      "facili": 5822,
      "Tour": 5823,
      "##detta": 5824,
      "congi": 5825,
      "##24": 5826,
      "sorve": 5827,
      "##'8": 5828,
      "##ssand": 5829,
      "##mali": 5830,
      "preghi": 5831,
      "Portogallo": 5832,
      "opportunità": 5833,
      "finché": 5834,
      "##pla": 5835,
      "sforzi": 5836,
      "intenzione": 5837,
      "visione": 5838,
      "##pressione": 5839,
      "recupera": 5840,
      "sacri": 5841,
      "titoli": 5842,
      "tizio": 5843,
      "scrivere": 5844,
      "conformità": 5845,
      "##denze": 5846,
      "##cchetto": 5847,
      "costruito": 5848,
      "specifico": 5849,
      "Pensi": 5850,
      "trattati": 5851,
      "Bassi": 5852,
      "decen": 5853,
      "crimina": 5854,
      "biglietto": 5855,
      "##turi": 5856,
      "75": 5857,
      "finalmente": 5858,
      "##cque": 5859,
      "##iego": 5860,
      "scusi": 5861,
      "oper": 5862,
      "##inante": 5863,
      "##cido": 5864,
      "Lan": 5865,
      "##equi": 5866,
      "Revisione": 5867,
      "succedendo": 5868,
      "Palazzo": 5869,
      "limiti": 5870,
      "Nonostante": 5871,
      "doccia": 5872,
      "Google": 5873,
      "##erazione": 5874,
      "tavolo": 5875,
      "interventi": 5876,
      "Acqu": 5877,
      "##zionare": 5878,
      "requisiti": 5879,
      "##ttica": 5880,
      "basi": 5881,
      "##cussioni": 5882,
      "trasfer": 5883,
      "umi": 5884,
      "cambiamenti": 5885,
      "##onata": 5886,
      "##offerta": 5887,
      "nominato": 5888,
      "##mpe": 5889,
      "decide": 5890,
      "salvare": 5891,
      "Rego": 5892,
      "sicuramente": 5893,
      "anzia": 5894,
      "bas": 5895,
      "##landia": 5896,
      "responsabili": 5897,
      "Commissario": 5898,
      "Web": 5899,
      "##65": 5900,
      "CH": 5901,
      "imm": 5902,
      "cristiani": 5903,
      "$": 5904,
      "Her": 5905,
      "Comunque": 5906,
      "notevole": 5907,
      "ampia": 5908,
      "##OC": 5909,
      "pensavo": 5910,
      "cambiamento": 5911,
      "fronti": 5912,
      "filoso": 5913,
      "##-3": 5914,
      "partite": 5915,
      "sacerdo": 5916,
      "aspettare": 5917,
      "##ade": 5918,
      "richia": 5919,
      "##/1": 5920,
      "potrei": 5921,
      "previste": 5922,
      "esistenti": 5923,
      "esperti": 5924,
      "putta": 5925,
      "##dge": 5926,
      "dormire": 5927,
      "##letta": 5928,
      "afferma": 5929,
      "pena": 5930,
      "##PP": 5931,
      "prevista": 5932,
      "vetro": 5933,
      "biglietti": 5934,
      "Chie": 5935,
      "competenze": 5936,
      "Tipo": 5937,
      "##lice": 5938,
      "utilizzando": 5939,
      "##gegn": 5940,
      "conclusione": 5941,
      "interessati": 5942,
      "forti": 5943,
      "##ormente": 5944,
      "News": 5945,
      "sufficiente": 5946,
      "recensioni": 5947,
      "##visa": 5948,
      "lettura": 5949,
      "vantaggio": 5950,
      "ponte": 5951,
      "combattere": 5952,
      "##tola": 5953,
      "marchio": 5954,
      "ille": 5955,
      "pratiche": 5956,
      "##erche": 5957,
      "##messe": 5958,
      "Aggiungi": 5959,
      "##cial": 5960,
      "consegna": 5961,
      "zi": 5962,
      "##esia": 5963,
      "felici": 5964,
      "##ssino": 5965,
      "Mu": 5966,
      "##inti": 5967,
      "vacanze": 5968,
      "ciclo": 5969,
      "##remo": 5970,
      "##ditore": 5971,
      "sinte": 5972,
      "basato": 5973,
      "tante": 5974,
      "aereo": 5975,
      "scarica": 5976,
      "##22": 5977,
      "ampio": 5978,
      "ghia": 5979,
      "##ori": 5980,
      "##71": 5981,
      "##pertura": 5982,
      "stabilisce": 5983,
      "connessione": 5984,
      "City": 5985,
      "giocatori": 5986,
      "appunta": 5987,
      "cane": 5988,
      "##abbiamo": 5989,
      "adottare": 5990,
      "yo": 5991,
      "volete": 5992,
      "giapponese": 5993,
      "##.2.": 5994,
      "vieni": 5995,
      "##vimenti": 5996,
      "circolazione": 5997,
      "Canada": 5998,
      "##onimo": 5999,
      "internet": 6000,
      "6,": 6001,
      "##terali": 6002,
      "sviluppare": 6003,
      "##onda": 6004,
      "decidere": 6005,
      "Foto": 6006,
      "entrambe": 6007,
      "aggiungere": 6008,
      "fed": 6009,
      "##cie": 6010,
      "..": 6011,
      "costruire": 6012,
      "team": 6013,
      "rivesti": 6014,
      "esame": 6015,
      "Fili": 6016,
      "##menta": 6017,
      "CESE": 6018,
      "Torna": 6019,
      "And": 6020,
      "Windows": 6021,
      "richiede": 6022,
      "chiamare": 6023,
      "##occasione": 6024,
      "##nel": 6025,
      "##istico": 6026,
      "##urato": 6027,
      "vittima": 6028,
      "##elenco": 6029,
      "nascita": 6030,
      "Sci": 6031,
      "ultime": 6032,
      "interessante": 6033,
      "presentata": 6034,
      "##AG": 6035,
      "##ufficio": 6036,
      "##ttivi": 6037,
      "concernente": 6038,
      "registrazione": 6039,
      "partecipanti": 6040,
      "sbagliato": 6041,
      "##interesse": 6042,
      "spalle": 6043,
      "##tativi": 6044,
      "rifiuti": 6045,
      "vege": 6046,
      "dica": 6047,
      "Mich": 6048,
      "pad": 6049,
      "Stiamo": 6050,
      "##inizia": 6051,
      "condizionata": 6052,
      "voto": 6053,
      "arrabbia": 6054,
      "sino": 6055,
      "Magari": 6056,
      "Indi": 6057,
      "preparazione": 6058,
      "##7)": 6059,
      "merid": 6060,
      "##gnamento": 6061,
      "dispositivo": 6062,
      "protocollo": 6063,
      "##grafico": 6064,
      "piatta": 6065,
      "##logie": 6066,
      "bisogna": 6067,
      "ministro": 6068,
      "Princi": 6069,
      "limite": 6070,
      "scuole": 6071,
      "##81": 6072,
      "##6/": 6073,
      "profilo": 6074,
      "suon": 6075,
      "##ald": 6076,
      "amma": 6077,
      "telefon": 6078,
      "brano": 6079,
      "##melo": 6080,
      "##ssibilità": 6081,
      "resistenza": 6082,
      "Joe": 6083,
      "sposta": 6084,
      "##cellona": 6085,
      "varietà": 6086,
      "paziente": 6087,
      "personaggio": 6088,
      "##glish": 6089,
      "Infine": 6090,
      "##ciare": 6091,
      "##ttempo": 6092,
      "poteri": 6093,
      "polizio": 6094,
      "nato": 6095,
      "##sità": 6096,
      "sarei": 6097,
      "Lis": 6098,
      "dubbio": 6099,
      "dichiarato": 6100,
      "opportuno": 6101,
      "ordini": 6102,
      "arrivo": 6103,
      "lasci": 6104,
      "SP": 6105,
      "Può": 6106,
      "sogno": 6107,
      "bellezza": 6108,
      "##OD": 6109,
      "##scritto": 6110,
      "Zo": 6111,
      "vicin": 6112,
      "impegno": 6113,
      "lavorato": 6114,
      "conformemente": 6115,
      "##ttorno": 6116,
      "Ancora": 6117,
      "faceva": 6118,
      "esplo": 6119,
      "magari": 6120,
      "Max": 6121,
      "##tria": 6122,
      "produttore": 6123,
      "ricordare": 6124,
      "##mentato": 6125,
      "dottor": 6126,
      "Slo": 6127,
      "quota": 6128,
      "resti": 6129,
      "presentazione": 6130,
      "92": 6131,
      "é": 6132,
      "##nno": 6133,
      "privata": 6134,
      "UN": 6135,
      "accol": 6136,
      "strade": 6137,
      "Air": 6138,
      "collegamento": 6139,
      "##isca": 6140,
      "Antonio": 6141,
      "Dan": 6142,
      "arma": 6143,
      "offerta": 6144,
      "spettacolo": 6145,
      "##ustralia": 6146,
      "##uori": 6147,
      "occidentale": 6148,
      "##74": 6149,
      "Ricor": 6150,
      "My": 6151,
      "fla": 6152,
      "##-200": 6153,
      "custo": 6154,
      "Belgio": 6155,
      "##.12.": 6156,
      "Barcellona": 6157,
      "##autorità": 6158,
      "motori": 6159,
      "assicurare": 6160,
      "##esercizio": 6161,
      "##bio": 6162,
      "sport": 6163,
      "##95": 6164,
      "bol": 6165,
      "frattempo": 6166,
      "deten": 6167,
      "##cenze": 6168,
      "##TER": 6169,
      "##uogo": 6170,
      "disciplina": 6171,
      "numeri": 6172,
      "##teriormente": 6173,
      "##gelo": 6174,
      "ottimo": 6175,
      "registrato": 6176,
      "##esame": 6177,
      "ricord": 6178,
      "selezione": 6179,
      "##inione": 6180,
      "consegui": 6181,
      "##ds": 6182,
      "##tentri": 6183,
      "conosco": 6184,
      "tradizionale": 6185,
      "trasferimento": 6186,
      "qualifica": 6187,
      "interni": 6188,
      "##derci": 6189,
      "rea": 6190,
      "proposto": 6191,
      "Natura": 6192,
      "##monian": 6193,
      "adulti": 6194,
      "World": 6195,
      "##glione": 6196,
      "##onale": 6197,
      "##ffo": 6198,
      "##Com": 6199,
      "Mari": 6200,
      "contemporanea": 6201,
      "emendamenti": 6202,
      "rimo": 6203,
      "intervento": 6204,
      "monito": 6205,
      "critica": 6206,
      "dirig": 6207,
      "USA": 6208,
      "tedesca": 6209,
      "##talità": 6210,
      "##cero": 6211,
      "debu": 6212,
      "privati": 6213,
      "suggeri": 6214,
      "scene": 6215,
      "cambiato": 6216,
      "Br": 6217,
      "##dosso": 6218,
      "parcheggio": 6219,
      "##.1.": 6220,
      "infras": 6221,
      "##ccati": 6222,
      "rub": 6223,
      "##arra": 6224,
      "6.": 6225,
      "suddi": 6226,
      "termina": 6227,
      "normativa": 6228,
      "concetto": 6229,
      "rimasto": 6230,
      "##andante": 6231,
      "##9/": 6232,
      "ara": 6233,
      "fate": 6234,
      "piante": 6235,
      "strutturali": 6236,
      "annuale": 6237,
      "ragioni": 6238,
      "manca": 6239,
      "##nità": 6240,
      "##zionalità": 6241,
      "##librio": 6242,
      "##usura": 6243,
      "##bby": 6244,
      "##aeroporto": 6245,
      "est": 6246,
      "archi": 6247,
      "VI": 6248,
      "##attenzione": 6249,
      "##mu": 6250,
      "permanente": 6251,
      "##ichia": 6252,
      "##eta": 6253,
      "##intervento": 6254,
      "##arli": 6255,
      "evidente": 6256,
      "##gger": 6257,
      "Fondo": 6258,
      "voti": 6259,
      "1998": 6260,
      "effettuare": 6261,
      "Tele": 6262,
      "##78": 6263,
      "tratto": 6264,
      "7,": 6265,
      "##ettando": 6266,
      "##erano": 6267,
      "##riamente": 6268,
      "cinema": 6269,
      "##demia": 6270,
      "##pon": 6271,
      "pubbliche": 6272,
      "essenziale": 6273,
      "Star": 6274,
      "turistica": 6275,
      "##bil": 6276,
      "##ENTO": 6277,
      "##33": 6278,
      "Mike": 6279,
      "vice": 6280,
      "indicato": 6281,
      "coltiva": 6282,
      "costituito": 6283,
      "Los": 6284,
      "1997": 6285,
      "##insta": 6286,
      "Saint": 6287,
      "##meric": 6288,
      "trasmissione": 6289,
      "porte": 6290,
      "##inci": 6291,
      "##umin": 6292,
      "prenotazione": 6293,
      "vicini": 6294,
      "lava": 6295,
      "partecipato": 6296,
      "Dice": 6297,
      "Scri": 6298,
      "superiori": 6299,
      "##terne": 6300,
      "alti": 6301,
      "dicono": 6302,
      "perchè": 6303,
      "personaggi": 6304,
      "##ford": 6305,
      "appli": 6306,
      "Esatto": 6307,
      "##21": 6308,
      "attivo": 6309,
      "Sic": 6310,
      "francesi": 6311,
      "protagonista": 6312,
      "##esc": 6313,
      "comunitari": 6314,
      "spazi": 6315,
      "celeb": 6316,
      "Mis": 6317,
      "##rietà": 6318,
      "legale": 6319,
      "rivista": 6320,
      "Quel": 6321,
      "##lizzata": 6322,
      "Sotto": 6323,
      "##Imp": 6324,
      "Mona": 6325,
      "##mes": 6326,
      "edu": 6327,
      "spagnolo": 6328,
      "permettere": 6329,
      "##bel": 6330,
      "coordinamento": 6331,
      "34": 6332,
      "Mac": 6333,
      "##EA": 6334,
      "##Pre": 6335,
      "za": 6336,
      "Figlio": 6337,
      "danne": 6338,
      "Vado": 6339,
      "tratti": 6340,
      "ritardo": 6341,
      "sviluppato": 6342,
      "secondi": 6343,
      "iscri": 6344,
      "Dra": 6345,
      "mille": 6346,
      "teatro": 6347,
      "##Lo": 6348,
      "silen": 6349,
      "corsi": 6350,
      "riuscito": 6351,
      "ovviamente": 6352,
      "pilota": 6353,
      "accettare": 6354,
      "vigi": 6355,
      "Consi": 6356,
      "peccato": 6357,
      "af": 6358,
      "Prodotti": 6359,
      "by": 6360,
      "tentativo": 6361,
      "Pur": 6362,
      "##estensione": 6363,
      "Confer": 6364,
      "##LI": 6365,
      "riscal": 6366,
      "buone": 6367,
      "pio": 6368,
      "vincere": 6369,
      "Sant": 6370,
      "Caro": 6371,
      "treni": 6372,
      "##book": 6373,
      "stimo": 6374,
      "##mante": 6375,
      "agente": 6376,
      "fattori": 6377,
      "##UM": 6378,
      "dirlo": 6379,
      "eventuali": 6380,
      "modificare": 6381,
      "bravo": 6382,
      "iniziale": 6383,
      "##gliamo": 6384,
      "##EM": 6385,
      "Sarebbe": 6386,
      "##64": 6387,
      "alimentare": 6388,
      "italiani": 6389,
      "minore": 6390,
      "150": 6391,
      "acquisi": 6392,
      "dirmi": 6393,
      "##tton": 6394,
      "ricorso": 6395,
      "tecnici": 6396,
      "Van": 6397,
      "collezione": 6398,
      "##mbri": 6399,
      "##usta": 6400,
      "indu": 6401,
      "PC": 6402,
      "##.10": 6403,
      "fianco": 6404,
      "Blu": 6405,
      "vada": 6406,
      "##omia": 6407,
      "destinazione": 6408,
      "priva": 6409,
      "recenti": 6410,
      "##pole": 6411,
      "##logici": 6412,
      "debole": 6413,
      "##esistenza": 6414,
      "testimonian": 6415,
      "##ziamenti": 6416,
      "##Is": 6417,
      "potente": 6418,
      "vini": 6419,
      "##gori": 6420,
      "dover": 6421,
      "acquistare": 6422,
      "##nis": 6423,
      "alimentari": 6424,
      "vuol": 6425,
      "consiste": 6426,
      "##diali": 6427,
      "attorno": 6428,
      "applicazioni": 6429,
      "1996": 6430,
      "##ttamento": 6431,
      "##adozione": 6432,
      "conferenza": 6433,
      "orto": 6434,
      "Sil": 6435,
      "giudice": 6436,
      "##talmente": 6437,
      "plu": 6438,
      "bassa": 6439,
      "potenziale": 6440,
      "##tività": 6441,
      "richiesto": 6442,
      "successiva": 6443,
      "laboratorio": 6444,
      "##notte": 6445,
      "verita": 6446,
      "cru": 6447,
      "##DI": 6448,
      "depu": 6449,
      "9,": 6450,
      "militari": 6451,
      "Ulti": 6452,
      "##autore": 6453,
      "parro": 6454,
      "paesa": 6455,
      "##verà": 6456,
      "##ostro": 6457,
      "chiamo": 6458,
      "offri": 6459,
      "##iniziativa": 6460,
      "elemento": 6461,
      "impossibile": 6462,
      "fretta": 6463,
      "spiega": 6464,
      "laure": 6465,
      "##grafie": 6466,
      "##inò": 6467,
      "montagna": 6468,
      "famoso": 6469,
      "##ttedra": 6470,
      "##cord": 6471,
      "pensando": 6472,
      "##tia": 6473,
      "Thom": 6474,
      "farsi": 6475,
      "Modi": 6476,
      "##tili": 6477,
      "percentuale": 6478,
      "spaven": 6479,
      "##stre": 6480,
      "accanto": 6481,
      "Essa": 6482,
      "Dar": 6483,
      "saputo": 6484,
      "intito": 6485,
      "##mò": 6486,
      "tan": 6487,
      "Tosc": 6488,
      "##lette": 6489,
      "ran": 6490,
      "189": 6491,
      "negoziati": 6492,
      "Israele": 6493,
      "taluni": 6494,
      "sensa": 6495,
      "Ray": 6496,
      "##nare": 6497,
      "post": 6498,
      "pianeta": 6499,
      "esclusivamente": 6500,
      "innamo": 6501,
      "giocatore": 6502,
      "esperienze": 6503,
      "firma": 6504,
      "preval": 6505,
      "debba": 6506,
      "##Si": 6507,
      "Prog": 6508,
      "sospen": 6509,
      "resp": 6510,
      "Robert": 6511,
      "secoli": 6512,
      "##vanta": 6513,
      "stabilire": 6514,
      "Park": 6515,
      "attraversa": 6516,
      "licen": 6517,
      "importazioni": 6518,
      "Sele": 6519,
      "cari": 6520,
      "##denzia": 6521,
      "ricerche": 6522,
      "sostenibile": 6523,
      "truppe": 6524,
      "##alti": 6525,
      "##lanza": 6526,
      "veniva": 6527,
      "cinese": 6528,
      "divisione": 6529,
      "##mettila": 6530,
      "##any": 6531,
      "##endario": 6532,
      "##Do": 6533,
      "faremo": 6534,
      "##ingresso": 6535,
      "farò": 6536,
      "accogli": 6537,
      "dista": 6538,
      "##ascia": 6539,
      "comportamento": 6540,
      "cosci": 6541,
      "capace": 6542,
      "processi": 6543,
      "##62": 6544,
      "spo": 6545,
      "##rle": 6546,
      "sugger": 6547,
      "Direttiva": 6548,
      "bom": 6549,
      "Valle": 6550,
      "chiedo": 6551,
      "##mann": 6552,
      "y": 6553,
      "pensiero": 6554,
      "compreso": 6555,
      "sappia": 6556,
      "differenti": 6557,
      "##pt": 6558,
      "Servizio": 6559,
      "servono": 6560,
      "##fero": 6561,
      "##?\"": 6562,
      "##tective": 6563,
      "##stituto": 6564,
      "##inten": 6565,
      "turisti": 6566,
      "##unzione": 6567,
      "psico": 6568,
      "##cini": 6569,
      "Gard": 6570,
      "##preso": 6571,
      "##ionamento": 6572,
      "convenzione": 6573,
      "agricola": 6574,
      "##bie": 6575,
      "Mai": 6576,
      "approfon": 6577,
      "seria": 6578,
      "##latore": 6579,
      "Quale": 6580,
      "Fla": 6581,
      "##troppo": 6582,
      "##gar": 6583,
      "Mark": 6584,
      "batte": 6585,
      "guardia": 6586,
      "teoria": 6587,
      "##cli": 6588,
      "##organ": 6589,
      "compati": 6590,
      "vescovo": 6591,
      "cora": 6592,
      "SU": 6593,
      "##fficienza": 6594,
      "asci": 6595,
      "##yer": 6596,
      "Mary": 6597,
      "conferma": 6598,
      "##dore": 6599,
      "coni": 6600,
      "realta": 6601,
      "pagine": 6602,
      "pronta": 6603,
      "##gnate": 6604,
      "Fino": 6605,
      "##inc": 6606,
      "Tali": 6607,
      "significato": 6608,
      "ripet": 6609,
      "Oddio": 6610,
      "ricom": 6611,
      "##introduzione": 6612,
      "allon": 6613,
      "##ish": 6614,
      "dedicata": 6615,
      "##ak": 6616,
      "##assa": 6617,
      "Pass": 6618,
      "temi": 6619,
      "categorie": 6620,
      "##-199": 6621,
      "ogn": 6622,
      "##0.000": 6623,
      "perse": 6624,
      "accor": 6625,
      "##dute": 6626,
      "##cic": 6627,
      "desiderio": 6628,
      "tiene": 6629,
      "rinno": 6630,
      "puttana": 6631,
      "violenza": 6632,
      "voci": 6633,
      "inven": 6634,
      "##13": 6635,
      "##zionati": 6636,
      "caldo": 6637,
      "cinemato": 6638,
      "##ionati": 6639,
      "occu": 6640,
      "##mosfera": 6641,
      "percor": 6642,
      "##dom": 6643,
      "##esca": 6644,
      "consigli": 6645,
      "##iness": 6646,
      "##4)": 6647,
      "Festival": 6648,
      "modificato": 6649,
      "uscita": 6650,
      "##opport": 6651,
      "notifica": 6652,
      "copri": 6653,
      "##rini": 6654,
      "##Co": 6655,
      "Cazzo": 6656,
      "soldati": 6657,
      "organismi": 6658,
      "##ji": 6659,
      "##sche": 6660,
      "chieder": 6661,
      "pressi": 6662,
      "##-9": 6663,
      "##ville": 6664,
      "soggetto": 6665,
      "positivo": 6666,
      "Centra": 6667,
      "posizioni": 6668,
      "##gitto": 6669,
      "Boll": 6670,
      "dando": 6671,
      "##ond": 6672,
      "Henry": 6673,
      "Alessand": 6674,
      "##ssibili": 6675,
      "sequ": 6676,
      "tenuta": 6677,
      "indirizzo": 6678,
      "stri": 6679,
      "##tudine": 6680,
      "evento": 6681,
      "##mbro": 6682,
      "papà": 6683,
      "Ani": 6684,
      "maga": 6685,
      "contribuire": 6686,
      "##logna": 6687,
      "##origine": 6688,
      "##Ne": 6689,
      "Molti": 6690,
      "approccio": 6691,
      "edificio": 6692,
      "##fort": 6693,
      "Torino": 6694,
      "Toscana": 6695,
      "avendo": 6696,
      "Vuole": 6697,
      "gentile": 6698,
      "##agricoltura": 6699,
      "successivi": 6700,
      "Siste": 6701,
      "copia": 6702,
      "Quest": 6703,
      "segnale": 6704,
      "materie": 6705,
      "corto": 6706,
      "Cali": 6707,
      "##uscita": 6708,
      "Dalla": 6709,
      "rigi": 6710,
      "Registra": 6711,
      "Banca": 6712,
      "##vide": 6713,
      "prigioni": 6714,
      "incontri": 6715,
      "istituisce": 6716,
      "giù": 6717,
      "##ttima": 6718,
      "Ana": 6719,
      "benessere": 6720,
      "##zzon": 6721,
      "rimb": 6722,
      "dipende": 6723,
      "##han": 6724,
      "##cili": 6725,
      "saperlo": 6726,
      "serata": 6727,
      "##ence": 6728,
      "diffusione": 6729,
      "rispettivamente": 6730,
      "##llazione": 6731,
      "Ken": 6732,
      "Far": 6733,
      "cancella": 6734,
      "Atten": 6735,
      "Situ": 6736,
      "consentire": 6737,
      "esterno": 6738,
      "Svezia": 6739,
      "Jean": 6740,
      "##Tu": 6741,
      "##ZA": 6742,
      "coer": 6743,
      "pronuncia": 6744,
      "Nazioni": 6745,
      "solida": 6746,
      "##ziali": 6747,
      "Credi": 6748,
      "##nata": 6749,
      "visitare": 6750,
      "Città": 6751,
      "chiese": 6752,
      "annunci": 6753,
      "utilizzata": 6754,
      "##........": 6755,
      "braccio": 6756,
      "Eh": 6757,
      "esemp": 6758,
      "propor": 6759,
      "##orrere": 6760,
      "presi": 6761,
      "Leggi": 6762,
      "##eva": 6763,
      "poche": 6764,
      "Berlino": 6765,
      "petro": 6766,
      "trasformazione": 6767,
      "##metter": 6768,
      "pesce": 6769,
      "##rola": 6770,
      "prosegui": 6771,
      "Agriturismo": 6772,
      "##tatore": 6773,
      "Bul": 6774,
      "##sen": 6775,
      "##state": 6776,
      "extra": 6777,
      "incidente": 6778,
      "formu": 6779,
      "aus": 6780,
      "##udo": 6781,
      "##ón": 6782,
      "federale": 6783,
      "##wood": 6784,
      "finestra": 6785,
      "##ortati": 6786,
      "85": 6787,
      "peri": 6788,
      "Pan": 6789,
      "svolto": 6790,
      "giustifica": 6791,
      "esistono": 6792,
      "dispositivi": 6793,
      "##torni": 6794,
      "recipro": 6795,
      "Sen": 6796,
      "Stavo": 6797,
      "##entrata": 6798,
      "pianta": 6799,
      "Bos": 6800,
      "definire": 6801,
      "avviene": 6802,
      "lumin": 6803,
      "Detta": 6804,
      "socio": 6805,
      "isole": 6806,
      "music": 6807,
      "##ira": 6808,
      "sorpresa": 6809,
      "riba": 6810,
      "monu": 6811,
      "cervello": 6812,
      "India": 6813,
      "Leon": 6814,
      "Nuova": 6815,
      "##diterraneo": 6816,
      "espresso": 6817,
      "perciò": 6818,
      "finanziarie": 6819,
      "##83": 6820,
      "settentri": 6821,
      "familiare": 6822,
      "Quali": 6823,
      "##derazione": 6824,
      "animale": 6825,
      "giuridica": 6826,
      "1994": 6827,
      "##ction": 6828,
      "##bar": 6829,
      "##rdo": 6830,
      "Tel": 6831,
      "##cus": 6832,
      "Face": 6833,
      "gare": 6834,
      "English": 6835,
      "evidenzia": 6836,
      "##Li": 6837,
      "##cela": 6838,
      "##ssuti": 6839,
      "Risto": 6840,
      "##SI": 6841,
      "##novazione": 6842,
      "##biti": 6843,
      "##fast": 6844,
      "cantante": 6845,
      "##istan": 6846,
      "##fano": 6847,
      "culturali": 6848,
      "DELLE": 6849,
      "mori": 6850,
      "denuncia": 6851,
      "desideri": 6852,
      "consta": 6853,
      "composta": 6854,
      "##tio": 6855,
      "##xy": 6856,
      "signorina": 6857,
      "##busti": 6858,
      "##arrivo": 6859,
      "vite": 6860,
      "cere": 6861,
      "elevato": 6862,
      "Nuovo": 6863,
      "Sua": 6864,
      "accade": 6865,
      "##ialmente": 6866,
      "valle": 6867,
      "irre": 6868,
      "iniziò": 6869,
      "inno": 6870,
      "sarai": 6871,
      "##ARE": 6872,
      "##gs": 6873,
      "amica": 6874,
      "##geno": 6875,
      "##mobili": 6876,
      "##inda": 6877,
      "meridionale": 6878,
      "inqu": 6879,
      "##get": 6880,
      "dimostrato": 6881,
      "presidenza": 6882,
      "##grafiche": 6883,
      "maritti": 6884,
      "malattie": 6885,
      "Continua": 6886,
      "terapia": 6887,
      "8,": 6888,
      "##69": 6889,
      "generalmente": 6890,
      "attuali": 6891,
      "##diche": 6892,
      "attacco": 6893,
      "##tern": 6894,
      "cresci": 6895,
      "pas": 6896,
      "##marca": 6897,
      "Anna": 6898,
      "elen": 6899,
      "droga": 6900,
      "Fri": 6901,
      "##aspetto": 6902,
      "fro": 6903,
      "Poiché": 6904,
      "##mila": 6905,
      "sente": 6906,
      "##asse": 6907,
      "storica": 6908,
      "conflitto": 6909,
      "elettrica": 6910,
      "##OV": 6911,
      "##tomi": 6912,
      "Gian": 6913,
      "fuggi": 6914,
      "Turchia": 6915,
      "competenza": 6916,
      "Lea": 6917,
      "Sulla": 6918,
      "agricoli": 6919,
      "illu": 6920,
      "disoccupazione": 6921,
      "##vor": 6922,
      "rece": 6923,
      "romanzo": 6924,
      "##archite": 6925,
      "pronti": 6926,
      "obbligato": 6927,
      "Relazione": 6928,
      "##rur": 6929,
      "esterni": 6930,
      "pomeri": 6931,
      "consoli": 6932,
      "familiari": 6933,
      "Scarica": 6934,
      "avvocato": 6935,
      "cavallo": 6936,
      "inizialmente": 6937,
      "arrivando": 6938,
      "trovi": 6939,
      "banche": 6940,
      "##oli": 6941,
      "##babilmente": 6942,
      "scritta": 6943,
      "Prodotto": 6944,
      "stabilito": 6945,
      "Prendi": 6946,
      "Micro": 6947,
      "33": 6948,
      "##elet": 6949,
      "##18": 6950,
      "farai": 6951,
      "accessori": 6952,
      "attiva": 6953,
      "voler": 6954,
      "##blioteca": 6955,
      "inva": 6956,
      "ascolta": 6957,
      "appari": 6958,
      "fili": 6959,
      "rinuncia": 6960,
      "Martin": 6961,
      "legi": 6962,
      "1995": 6963,
      "veicolo": 6964,
      "fornisce": 6965,
      "automatica": 6966,
      "##esecuzione": 6967,
      "Pas": 6968,
      "We": 6969,
      "recante": 6970,
      "restri": 6971,
      "prepara": 6972,
      "Charles": 6973,
      "##!\"": 6974,
      "circ": 6975,
      "sorg": 6976,
      "##4/": 6977,
      "canale": 6978,
      "##eggio": 6979,
      "##orsi": 6980,
      "capol": 6981,
      "400": 6982,
      "sessione": 6983,
      "Cioe": 6984,
      "ap": 6985,
      "organizzato": 6986,
      "colpito": 6987,
      "palla": 6988,
      "risposte": 6989,
      "star": 6990,
      "canzoni": 6991,
      "##urata": 6992,
      "##zer": 6993,
      "##ssemburgo": 6994,
      "conge": 6995,
      "CD": 6996,
      "##appartamento": 6997,
      "ES": 6998,
      "piaci": 6999,
      "Richard": 7000,
      "##pito": 7001,
      "##acquisto": 7002,
      "governi": 7003,
      "##impatto": 7004,
      "Irlanda": 7005,
      "##impe": 7006,
      "nom": 7007,
      "##55": 7008,
      "freddo": 7009,
      "##leggio": 7010,
      "##rita": 7011,
      "Hel": 7012,
      "Andro": 7013,
      "##ttobre": 7014,
      "sostan": 7015,
      "applicare": 7016,
      "##king": 7017,
      "##grado": 7018,
      "Metti": 7019,
      "errori": 7020,
      "##apertura": 7021,
      "Den": 7022,
      "tonnella": 7023,
      "minori": 7024,
      "##anità": 7025,
      "determinare": 7026,
      "(200": 7027,
      "rovina": 7028,
      "##02": 7029,
      "##cker": 7030,
      "tracce": 7031,
      "uscito": 7032,
      "copertura": 7033,
      "##truzioni": 7034,
      "##vra": 7035,
      "Aff": 7036,
      "doganale": 7037,
      "zucchero": 7038,
      "##ccellente": 7039,
      "deriva": 7040,
      "compresi": 7041,
      "bor": 7042,
      "ossia": 7043,
      "spirituale": 7044,
      "decre": 7045,
      "rafforzare": 7046,
      "##toni": 7047,
      "Ren": 7048,
      "House": 7049,
      "personalizza": 7050,
      "##istituzione": 7051,
      "##osizioni": 7052,
      "Jane": 7053,
      "##pina": 7054,
      "lavorando": 7055,
      "potranno": 7056,
      "Attu": 7057,
      "emissioni": 7058,
      "svolgere": 7059,
      "affida": 7060,
      "Esso": 7061,
      "fisica": 7062,
      "Roy": 7063,
      "ECU": 7064,
      "ber": 7065,
      "medesi": 7066,
      "appropria": 7067,
      "Ph": 7068,
      "Dimmi": 7069,
      "##incontro": 7070,
      "der": 7071,
      "°": 7072,
      "gene": 7073,
      "verranno": 7074,
      "##ship": 7075,
      "Champ": 7076,
      "medicinali": 7077,
      "Luigi": 7078,
      "gestire": 7079,
      "##metro": 7080,
      "approvato": 7081,
      "discorso": 7082,
      "testimoni": 7083,
      "luci": 7084,
      "dotato": 7085,
      "appuntamento": 7086,
      "You": 7087,
      "##fezione": 7088,
      "Isa": 7089,
      "##toria": 7090,
      "perfettamente": 7091,
      "composizione": 7092,
      "frutta": 7093,
      "braccia": 7094,
      "##ost": 7095,
      "vecchi": 7096,
      "##burg": 7097,
      "compensa": 7098,
      "destinato": 7099,
      "fame": 7100,
      "metropoli": 7101,
      "individ": 7102,
      "superare": 7103,
      "flo": 7104,
      "tariffa": 7105,
      "imparare": 7106,
      "##inea": 7107,
      "stabilità": 7108,
      "##sion": 7109,
      "pelli": 7110,
      "##ruzione": 7111,
      "##1/": 7112,
      "Let": 7113,
      "procura": 7114,
      "revisione": 7115,
      "potremmo": 7116,
      "fara": 7117,
      "solamente": 7118,
      "generazione": 7119,
      "##versario": 7120,
      "Sempre": 7121,
      "##loni": 7122,
      "##jo": 7123,
      "Gri": 7124,
      "##pper": 7125,
      "scheda": 7126,
      "Tren": 7127,
      "##rra": 7128,
      "facente": 7129,
      "episodi": 7130,
      "sanno": 7131,
      "##integrazione": 7132,
      "preghiera": 7133,
      "Wa": 7134,
      "##ciato": 7135,
      "##tualmente": 7136,
      "presentano": 7137,
      "##cha": 7138,
      "ehi": 7139,
      "Visi": 7140,
      "Matt": 7141,
      "pubblicità": 7142,
      "##mmy": 7143,
      "fondata": 7144,
      "perce": 7145,
      "caro": 7146,
      "Santi": 7147,
      "gusto": 7148,
      "vento": 7149,
      "sfida": 7150,
      "ST": 7151,
      "##cchiata": 7152,
      "##scono": 7153,
      "motiva": 7154,
      "##ban": 7155,
      "buoni": 7156,
      "##pio": 7157,
      "seno": 7158,
      "allar": 7159,
      "situazioni": 7160,
      "##gici": 7161,
      "lasc": 7162,
      "##...]": 7163,
      "##logio": 7164,
      "Brasile": 7165,
      "##burgo": 7166,
      "ovest": 7167,
      "Africa": 7168,
      "Teso": 7169,
      "Pubblica": 7170,
      "americano": 7171,
      "ambientali": 7172,
      "moderna": 7173,
      "Luca": 7174,
      "##rittura": 7175,
      "Os": 7176,
      "decise": 7177,
      "ultima": 7178,
      "##ongono": 7179,
      "svolta": 7180,
      "##ansione": 7181,
      "conclusioni": 7182,
      "Essi": 7183,
      "navigazione": 7184,
      "museo": 7185,
      "discri": 7186,
      "Sici": 7187,
      "##73": 7188,
      "1992": 7189,
      "olio": 7190,
      "schermo": 7191,
      "spesa": 7192,
      "PMI": 7193,
      "anticipo": 7194,
      "sparato": 7195,
      "tabella": 7196,
      "foresta": 7197,
      "Piazza": 7198,
      "West": 7199,
      "Nico": 7200,
      "##letter": 7201,
      "Lussemburgo": 7202,
      "##geni": 7203,
      "##icia": 7204,
      "DELLA": 7205,
      "##0)": 7206,
      "facol": 7207,
      "##Mi": 7208,
      "riparti": 7209,
      "55": 7210,
      "semina": 7211,
      "inser": 7212,
      "possie": 7213,
      "##-6": 7214,
      "capitali": 7215,
      "##uiti": 7216,
      "previsti": 7217,
      "aggre": 7218,
      "attrezza": 7219,
      "prendi": 7220,
      "Buongiorno": 7221,
      "##vamento": 7222,
      "Jos": 7223,
      "punta": 7224,
      "fornito": 7225,
      "relativamente": 7226,
      "obblighi": 7227,
      "##titudine": 7228,
      "Vir": 7229,
      "##destra": 7230,
      "inver": 7231,
      "residenti": 7232,
      "considerata": 7233,
      "metti": 7234,
      "soddisfare": 7235,
      "St": 7236,
      "Proposta": 7237,
      "rit": 7238,
      "momenti": 7239,
      "stranieri": 7240,
      "Parte": 7241,
      "incarica": 7242,
      "Tieni": 7243,
      "valutare": 7244,
      "##bona": 7245,
      "direttive": 7246,
      "eliminare": 7247,
      "##dò": 7248,
      "##rizzazione": 7249,
      "##arca": 7250,
      "tessuto": 7251,
      "##alli": 7252,
      "##chino": 7253,
      "fina": 7254,
      "religione": 7255,
      "##mendo": 7256,
      "nutri": 7257,
      "semplici": 7258,
      "##gando": 7259,
      "bianca": 7260,
      "##angelo": 7261,
      "Pertanto": 7262,
      "Sarà": 7263,
      "dipendenti": 7264,
      "interamente": 7265,
      "Art": 7266,
      "tris": 7267,
      "tiro": 7268,
      "ulteriormente": 7269,
      "##iti": 7270,
      "popolari": 7271,
      "immer": 7272,
      "svolge": 7273,
      "confine": 7274,
      "meda": 7275,
      "7.": 7276,
      "denti": 7277,
      "titolare": 7278,
      "##ENTE": 7279,
      "larga": 7280,
      "##ht": 7281,
      "##let": 7282,
      "vicina": 7283,
      "##aller": 7284,
      "##ticamente": 7285,
      "##wser": 7286,
      "pensione": 7287,
      "##effetto": 7288,
      "trasparen": 7289,
      "lusso": 7290,
      "conquis": 7291,
      "##core": 7292,
      "##AD": 7293,
      "enorme": 7294,
      "##IP": 7295,
      "domenica": 7296,
      "trovere": 7297,
      "##sson": 7298,
      "##inqu": 7299,
      "##versale": 7300,
      "65": 7301,
      "Colo": 7302,
      "avrai": 7303,
      "tradizionali": 7304,
      "Scopri": 7305,
      "##ettori": 7306,
      "##44": 7307,
      "vul": 7308,
      "contatti": 7309,
      "##bli": 7310,
      "Salva": 7311,
      "finche": 7312,
      "Generale": 7313,
      "prec": 7314,
      "morì": 7315,
      "piacerebbe": 7316,
      "Polonia": 7317,
      "##sole": 7318,
      "Mod": 7319,
      "affatto": 7320,
      "##identi": 7321,
      "scoperta": 7322,
      "salve": 7323,
      "Tesoro": 7324,
      "Rice": 7325,
      "##vidi": 7326,
      "Probabilmente": 7327,
      "##ye": 7328,
      "##contra": 7329,
      "specialmente": 7330,
      "simbolo": 7331,
      "rosa": 7332,
      "disegno": 7333,
      "rappresentano": 7334,
      "vestiti": 7335,
      "viaggi": 7336,
      "##ppie": 7337,
      "##donna": 7338,
      "##unici": 7339,
      "ciascuna": 7340,
      "ml": 7341,
      "digitale": 7342,
      "ricco": 7343,
      "Codice": 7344,
      "##ulo": 7345,
      "##viste": 7346,
      "##uite": 7347,
      "##importazione": 7348,
      "EN": 7349,
      "certamente": 7350,
      "continui": 7351,
      "esti": 7352,
      "interessato": 7353,
      "dev": 7354,
      "##/10": 7355,
      "antichi": 7356,
      "coi": 7357,
      "1993": 7358,
      "##evoluzione": 7359,
      "Spirito": 7360,
      "('": 7361,
      "compresa": 7362,
      "cassa": 7363,
      "State": 7364,
      "##ALI": 7365,
      "##zzetta": 7366,
      "##lun": 7367,
      "Fami": 7368,
      "##ensore": 7369,
      "##cciaio": 7370,
      "incluso": 7371,
      "produrre": 7372,
      "colora": 7373,
      "pista": 7374,
      "##fferte": 7375,
      "infrastrutture": 7376,
      "giocato": 7377,
      "procedere": 7378,
      "matrimon": 7379,
      "##17": 7380,
      "##geli": 7381,
      "potresti": 7382,
      "taglia": 7383,
      "ministri": 7384,
      "Alloggio": 7385,
      "##inario": 7386,
      "##golare": 7387,
      "usando": 7388,
      "##dali": 7389,
      "indic": 7390,
      "##tani": 7391,
      "immobiliare": 7392,
      "sepol": 7393,
      "chiusura": 7394,
      "Danimarca": 7395,
      "Appartamento": 7396,
      "duro": 7397,
      "##De": 7398,
      "dirti": 7399,
      "##enz": 7400,
      "vicinanze": 7401,
      "cellulare": 7402,
      "gioia": 7403,
      "sostanza": 7404,
      "vuoto": 7405,
      "organizzazione": 7406,
      "preferiti": 7407,
      "##tagna": 7408,
      "proprietario": 7409,
      "giudizio": 7410,
      "##adesione": 7411,
      "##ness": 7412,
      "consen": 7413,
      "armoni": 7414,
      "diretti": 7415,
      "Condi": 7416,
      "##manti": 7417,
      "##zionamento": 7418,
      "ovunque": 7419,
      "Nick": 7420,
      "ab": 7421,
      "viaggia": 7422,
      "(199": 7423,
      "Ry": 7424,
      "patrimonio": 7425,
      "##dal": 7426,
      "preventivo": 7427,
      "##obbli": 7428,
      "imposta": 7429,
      "selva": 7430,
      "addirittura": 7431,
      "##load": 7432,
      "##venuti": 7433,
      "indispensa": 7434,
      "torre": 7435,
      "Quantità": 7436,
      "Whi": 7437,
      "##assistenza": 7438,
      "rimase": 7439,
      "traduzione": 7440,
      "42": 7441,
      "pomeriggio": 7442,
      "Successi": 7443,
      "##mori": 7444,
      "nemico": 7445,
      "insu": 7446,
      "definito": 7447,
      "##osità": 7448,
      "altresì": 7449,
      "applicabile": 7450,
      "##arle": 7451,
      "antico": 7452,
      "prendendo": 7453,
      "reazione": 7454,
      "preoccuparti": 7455,
      "spon": 7456,
      "##bon": 7457,
      "esterna": 7458,
      "storie": 7459,
      "polvere": 7460,
      "descrizione": 7461,
      "##orn": 7462,
      "Visualizza": 7463,
      "relatore": 7464,
      "ricche": 7465,
      "regolare": 7466,
      "##arch": 7467,
      "adegu": 7468,
      "regalo": 7469,
      "Ze": 7470,
      "configu": 7471,
      "##omet": 7472,
      "Edi": 7473,
      "naturalmente": 7474,
      "##sante": 7475,
      "##icato": 7476,
      "potesse": 7477,
      "##igu": 7478,
      "Bus": 7479,
      "##ORE": 7480,
      "AN": 7481,
      "soffer": 7482,
      "qualora": 7483,
      "##vente": 7484,
      "assor": 7485,
      "##ITÀ": 7486,
      "##artiene": 7487,
      "Black": 7488,
      "##gratu": 7489,
      "arte": 7490,
      "comprare": 7491,
      "sebbene": 7492,
      "suono": 7493,
      "##'11": 7494,
      "##68": 7495,
      "##lor": 7496,
      "uguale": 7497,
      "##rena": 7498,
      "versioni": 7499,
      "avresti": 7500,
      "##gnazione": 7501,
      "greco": 7502,
      "Marina": 7503,
      "Messico": 7504,
      "area": 7505,
      "##ason": 7506,
      "lati": 7507,
      "farci": 7508,
      "collegamenti": 7509,
      "Contatta": 7510,
      "licenzia": 7511,
      "competente": 7512,
      "##ls": 7513,
      "nasce": 7514,
      "Suo": 7515,
      "Wow": 7516,
      "fascia": 7517,
      "##atta": 7518,
      "botti": 7519,
      "competenti": 7520,
      "recupero": 7521,
      "conquista": 7522,
      "Ara": 7523,
      "analizza": 7524,
      "##urope": 7525,
      "##sma": 7526,
      "##samente": 7527,
      "legger": 7528,
      "privile": 7529,
      "Partito": 7530,
      "Avanti": 7531,
      "##occhio": 7532,
      "dominio": 7533,
      "volto": 7534,
      "avevi": 7535,
      "pregi": 7536,
      "pubblicata": 7537,
      "Iscri": 7538,
      "Bella": 7539,
      "1990": 7540,
      "́": 7541,
      "Premio": 7542,
      "Rai": 7543,
      "utilizzo": 7544,
      "XI": 7545,
      "##tice": 7546,
      "##uova": 7547,
      "sorpren": 7548,
      "premi": 7549,
      "tela": 7550,
      "##gazioni": 7551,
      "##té": 7552,
      "##dotte": 7553,
      "##ille": 7554,
      "th": 7555,
      "Bologna": 7556,
      "prestito": 7557,
      "##pino": 7558,
      "Comune": 7559,
      "accedere": 7560,
      "occa": 7561,
      "##antica": 7562,
      "contratti": 7563,
      "calda": 7564,
      "dovranno": 7565,
      "effettivamente": 7566,
      "aposto": 7567,
      "Geno": 7568,
      "dintorni": 7569,
      "Han": 7570,
      "allen": 7571,
      "##dicazione": 7572,
      "##ggiate": 7573,
      "##como": 7574,
      "Mr": 7575,
      "assunto": 7576,
      "confronto": 7577,
      "costituiscono": 7578,
      "Crede": 7579,
      "##brei": 7580,
      "Regolamento": 7581,
      "Aveva": 7582,
      "##nello": 7583,
      "##cht": 7584,
      "48": 7585,
      "Ottimo": 7586,
      "##innovazione": 7587,
      "##ude": 7588,
      "Convenzione": 7589,
      "negozi": 7590,
      "Ros": 7591,
      "stupido": 7592,
      "##work": 7593,
      "riceve": 7594,
      "##gone": 7595,
      "##FR": 7596,
      "10,": 7597,
      "ritra": 7598,
      "##aumento": 7599,
      "turismo": 7600,
      "passeggeri": 7601,
      "Red": 7602,
      "##lizia": 7603,
      "vasta": 7604,
      "tranquilla": 7605,
      "risal": 7606,
      "troviamo": 7607,
      "nucleare": 7608,
      "ospedale": 7609,
      "browser": 7610,
      "moderno": 7611,
      "##ashington": 7612,
      "seduta": 7613,
      "##indirizzo": 7614,
      "cavolo": 7615,
      "continuo": 7616,
      "age": 7617,
      "muro": 7618,
      "segni": 7619,
      "avver": 7620,
      "condotta": 7621,
      "quegli": 7622,
      "##ssici": 7623,
      "praticamente": 7624,
      "Australia": 7625,
      "persino": 7626,
      "zio": 7627,
      "Parla": 7628,
      "verificare": 7629,
      "Unione": 7630,
      "tradu": 7631,
      "associazione": 7632,
      "##NO": 7633,
      "##cho": 7634,
      "equipa": 7635,
      "benissimo": 7636,
      "candidati": 7637,
      "##cciono": 7638,
      "augu": 7639,
      "##05": 7640,
      "tenta": 7641,
      "Conc": 7642,
      "spero": 7643,
      "Avevo": 7644,
      "##fornia": 7645,
      "##toriale": 7646,
      "sessuale": 7647,
      "##29": 7648,
      "AG": 7649,
      "considerare": 7650,
      "circostanze": 7651,
      "basata": 7652,
      "##%.": 7653,
      "Francis": 7654,
      "Bill": 7655,
      "impegni": 7656,
      "rinnova": 7657,
      "ine": 7658,
      "Tec": 7659,
      "##goro": 7660,
      "##cello": 7661,
      "##disce": 7662,
      "Media": 7663,
      "conservazione": 7664,
      "##mene": 7665,
      "##pato": 7666,
      "raffigu": 7667,
      "##unione": 7668,
      "apre": 7669,
      "Offerte": 7670,
      "rurale": 7671,
      "ricca": 7672,
      "##terale": 7673,
      "possesso": 7674,
      "##ugh": 7675,
      "##ziosa": 7676,
      "sorta": 7677,
      "frequenza": 7678,
      "compiti": 7679,
      "determinato": 7680,
      "Pers": 7681,
      "cra": 7682,
      "ster": 7683,
      "disabili": 7684,
      "record": 7685,
      "##gas": 7686,
      "consultazione": 7687,
      "Ov": 7688,
      "fasi": 7689,
      "##tle": 7690,
      "Aeroporto": 7691,
      "borsa": 7692,
      "pru": 7693,
      "terribile": 7694,
      "tessi": 7695,
      "minima": 7696,
      "scientifica": 7697,
      "settentrionale": 7698,
      "Torre": 7699,
      "##ttedrale": 7700,
      "Charlie": 7701,
      "##risto": 7702,
      "ipo": 7703,
      "##zzina": 7704,
      "opzioni": 7705,
      "Cristi": 7706,
      "Trib": 7707,
      "letti": 7708,
      "ufficialmente": 7709,
      "signori": 7710,
      "aerei": 7711,
      "##importo": 7712,
      "ger": 7713,
      "taglio": 7714,
      "Viene": 7715,
      "potrai": 7716,
      "femmine": 7717,
      "##ccademia": 7718,
      "ottiene": 7719,
      "Ty": 7720,
      "stella": 7721,
      "##Di": 7722,
      "##stein": 7723,
      "maschile": 7724,
      "andar": 7725,
      "certi": 7726,
      "##mula": 7727,
      "licenza": 7728,
      "##iezione": 7729,
      "Patri": 7730,
      "complica": 7731,
      "Parco": 7732,
      "##mora": 7733,
      "intelligente": 7734,
      "##48": 7735,
      "sorveglianza": 7736,
      "Discussioni": 7737,
      "##diota": 7738,
      "coesione": 7739,
      "scarpe": 7740,
      "intensi": 7741,
      "##alizzazione": 7742,
      "AT": 7743,
      "Fanta": 7744,
      "95": 7745,
      "occupazione": 7746,
      "##logiche": 7747,
      "##teremo": 7748,
      "inclusi": 7749,
      "Shi": 7750,
      "esplora": 7751,
      "escl": 7752,
      "King": 7753,
      "eser": 7754,
      "baga": 7755,
      "GUL": 7756,
      "##naia": 7757,
      "##usale": 7758,
      "piatto": 7759,
      "##allen": 7760,
      "##gus": 7761,
      "##nei": 7762,
      "##quo": 7763,
      "Sette": 7764,
      "moderni": 7765,
      "##sk": 7766,
      "##ficata": 7767,
      "sostituito": 7768,
      "riconosciuto": 7769,
      "Glo": 7770,
      "differenze": 7771,
      "Champion": 7772,
      "autore": 7773,
      "##rista": 7774,
      "combatti": 7775,
      "password": 7776,
      "##effica": 7777,
      "tonnellate": 7778,
      "trasfor": 7779,
      "##wnload": 7780,
      "bandi": 7781,
      "scola": 7782,
      "##66": 7783,
      "Ab": 7784,
      "Piano": 7785,
      "##rand": 7786,
      "##gene": 7787,
      "punte": 7788,
      "##zando": 7789,
      "##potesi": 7790,
      "incontrato": 7791,
      "virus": 7792,
      "comandante": 7793,
      "##degna": 7794,
      "pienamente": 7795,
      "##inata": 7796,
      "Pote": 7797,
      "raggiunge": 7798,
      "Fare": 7799,
      "catena": 7800,
      "interessate": 7801,
      "Cle": 7802,
      "Studi": 7803,
      "caduta": 7804,
      "nazioni": 7805,
      "notare": 7806,
      "cambi": 7807,
      "Spedizione": 7808,
      "ampli": 7809,
      "nemici": 7810,
      "League": 7811,
      "##erata": 7812,
      "diocesi": 7813,
      "consenso": 7814,
      "War": 7815,
      "##ttuale": 7816,
      "##port": 7817,
      "adottate": 7818,
      "##23": 7819,
      "battuto": 7820,
      "eccessi": 7821,
      "Thomas": 7822,
      "Washington": 7823,
      "##infer": 7824,
      "Provin": 7825,
      "sforzo": 7826,
      "frutto": 7827,
      "pale": 7828,
      "Romania": 7829,
      "##ring": 7830,
      "legati": 7831,
      "Compa": 7832,
      "sapete": 7833,
      "santi": 7834,
      "accettato": 7835,
      "Attività": 7836,
      "##augu": 7837,
      "185": 7838,
      "##pic": 7839,
      "concentrazione": 7840,
      "##.00": 7841,
      "cellule": 7842,
      "##gion": 7843,
      "include": 7844,
      "Dev": 7845,
      "##Africa": 7846,
      "##Ufficio": 7847,
      "tenendo": 7848,
      "##peri": 7849,
      "[...]": 7850,
      "risparmia": 7851,
      "”,": 7852,
      "1988": 7853,
      "intero": 7854,
      "prescri": 7855,
      "Costa": 7856,
      "vivono": 7857,
      "prospettiva": 7858,
      "santo": 7859,
      "inti": 7860,
      "##cene": 7861,
      "costruita": 7862,
      "##agente": 7863,
      "##terò": 7864,
      "giudica": 7865,
      "zo": 7866,
      "##associazione": 7867,
      "##anny": 7868,
      "iniziativa": 7869,
      "visite": 7870,
      "##marsi": 7871,
      "ciascun": 7872,
      "arrivati": 7873,
      "istruzione": 7874,
      "##zzò": 7875,
      "##estero": 7876,
      "molta": 7877,
      "sapeva": 7878,
      "##Po": 7879,
      "Chris": 7880,
      "##ku": 7881,
      "1985": 7882,
      "talune": 7883,
      "Disponibile": 7884,
      "Castel": 7885,
      "Facciamo": 7886,
      "tedeschi": 7887,
      "##anima": 7888,
      "##\":": 7889,
      "realizzati": 7890,
      "©": 7891,
      "attuazione": 7892,
      "Street": 7893,
      "immagine": 7894,
      "amiche": 7895,
      "##lesc": 7896,
      "fatte": 7897,
      "ambito": 7898,
      "realizzata": 7899,
      "Rin": 7900,
      "gus": 7901,
      "##mbascia": 7902,
      "##Ro": 7903,
      "Internazionale": 7904,
      "commenti": 7905,
      "Angeles": 7906,
      "combinazione": 7907,
      "##uth": 7908,
      "concessione": 7909,
      "##IVA": 7910,
      "cera": 7911,
      "altrimenti": 7912,
      "##BB": 7913,
      "usata": 7914,
      "chiara": 7915,
      "audio": 7916,
      "Design": 7917,
      "asc": 7918,
      "1987": 7919,
      "##RI": 7920,
      "##chestra": 7921,
      "terrazza": 7922,
      "##ara": 7923,
      "sentenza": 7924,
      "tavola": 7925,
      "Cala": 7926,
      "##insieme": 7927,
      "messaggi": 7928,
      "Perchè": 7929,
      "1989": 7930,
      "vorre": 7931,
      "inserito": 7932,
      "tira": 7933,
      "entrato": 7934,
      "##cheo": 7935,
      "##pisodio": 7936,
      "alberi": 7937,
      "##utente": 7938,
      "democrazia": 7939,
      "capoluogo": 7940,
      "entrata": 7941,
      "abitu": 7942,
      "##26": 7943,
      "Eri": 7944,
      "contributi": 7945,
      "Dic": 7946,
      "##vuto": 7947,
      "##43": 7948,
      "Ces": 7949,
      "studente": 7950,
      "ulteriore": 7951,
      "sembrano": 7952,
      "##grafi": 7953,
      "meccanismo": 7954,
      "debito": 7955,
      "##ospedale": 7956,
      "##til": 7957,
      "##lui": 7958,
      "sconfitta": 7959,
      "##Bo": 7960,
      "eravamo": 7961,
      "##urro": 7962,
      "##the": 7963,
      "averlo": 7964,
      "ridotto": 7965,
      "coscienza": 7966,
      "deposito": 7967,
      "1°": 7968,
      "regina": 7969,
      "Amm": 7970,
      "fenomeno": 7971,
      "##hop": 7972,
      "medi": 7973,
      "scienza": 7974,
      "bellissima": 7975,
      "inde": 7976,
      "##dremo": 7977,
      "##erta": 7978,
      "introdu": 7979,
      "riferisce": 7980,
      "Arti": 7981,
      "dramma": 7982,
      "apertura": 7983,
      "stronza": 7984,
      "converti": 7985,
      "piacciono": 7986,
      "Zi": 7987,
      "indiri": 7988,
      "nazione": 7989,
      "Record": 7990,
      "##diso": 7991,
      "tagli": 7992,
      "ristoranti": 7993,
      "congre": 7994,
      "Ragazzi": 7995,
      "pane": 7996,
      "##ré": 7997,
      "sm": 7998,
      "Pis": 7999,
      "periodi": 8000,
      "reddito": 8001,
      "##verna": 8002,
      "##resti": 8003,
      "concerne": 8004,
      "omicidio": 8005,
      "##mic": 8006,
      "##erve": 8007,
      "tempio": 8008,
      "##'\"": 8009,
      "1986": 8010,
      "pesante": 8011,
      "metalli": 8012,
      "maglia": 8013,
      "##fetto": 8014,
      "##%)": 8015,
      "offrono": 8016,
      "##lizzati": 8017,
      "##MP": 8018,
      "combusti": 8019,
      "Jer": 8020,
      "incom": 8021,
      "piatti": 8022,
      "##guardia": 8023,
      "storici": 8024,
      "elenco": 8025,
      "Video": 8026,
      "cada": 8027,
      "##usalemme": 8028,
      "##.5": 8029,
      "##ISS": 8030,
      "automobili": 8031,
      "corretta": 8032,
      "primavera": 8033,
      "##letto": 8034,
      "vince": 8035,
      "conoscer": 8036,
      "amministrativa": 8037,
      "##impegno": 8038,
      "chiusa": 8039,
      "tornata": 8040,
      "onorevoli": 8041,
      "diam": 8042,
      "attesa": 8043,
      "##41": 8044,
      "esercita": 8045,
      "monte": 8046,
      "pover": 8047,
      "americani": 8048,
      "##gri": 8049,
      "legato": 8050,
      "##tava": 8051,
      "nera": 8052,
      "Sicilia": 8053,
      "diede": 8054,
      "Ministro": 8055,
      "puni": 8056,
      "##gola": 8057,
      "Dettagli": 8058,
      "ceri": 8059,
      "##ssaggio": 8060,
      "##amministrazione": 8061,
      "addosso": 8062,
      "costretto": 8063,
      "operativo": 8064,
      "Ono": 8065,
      "vestito": 8066,
      "professionali": 8067,
      "Dip": 8068,
      "modificata": 8069,
      "orale": 8070,
      "elettro": 8071,
      "stretto": 8072,
      "dettaglio": 8073,
      "##ingle": 8074,
      "##ortazioni": 8075,
      "##erdì": 8076,
      "Nove": 8077,
      "Sce": 8078,
      "##ennale": 8079,
      "inuti": 8080,
      "regista": 8081,
      "sorge": 8082,
      "##ervi": 8083,
      "##occhiata": 8084,
      "salvato": 8085,
      "##VD": 8086,
      "##minati": 8087,
      "dovete": 8088,
      "spre": 8089,
      "coraggio": 8090,
      "tea": 8091,
      "fiscale": 8092,
      "rib": 8093,
      "registrati": 8094,
      "##tele": 8095,
      "impatto": 8096,
      "rapida": 8097,
      "##luenza": 8098,
      "Dammi": 8099,
      "IP": 8100,
      "tappe": 8101,
      "Daniel": 8102,
      "classificazione": 8103,
      "Bian": 8104,
      "##2/": 8105,
      "Jose": 8106,
      "rilass": 8107,
      "manutenzione": 8108,
      "colonna": 8109,
      "farmaco": 8110,
      "frequen": 8111,
      "##Agenzia": 8112,
      "Universi": 8113,
      "riuscì": 8114,
      "Posizione": 8115,
      "piattaforma": 8116,
      "persegui": 8117,
      "Austria": 8118,
      "Bed": 8119,
      "38": 8120,
      "ringrazio": 8121,
      "##opportunità": 8122,
      "inaugu": 8123,
      "Louis": 8124,
      "movimenti": 8125,
      "##evento": 8126,
      "Bern": 8127,
      "##culo": 8128,
      "##eek": 8129,
      "##venza": 8130,
      "associazioni": 8131,
      "Insomma": 8132,
      "agire": 8133,
      "##alta": 8134,
      "concerto": 8135,
      "costu": 8136,
      "orientamenti": 8137,
      "##arvi": 8138,
      "colp": 8139,
      "##orgio": 8140,
      "##reak": 8141,
      "##ccata": 8142,
      "Segre": 8143,
      "implica": 8144,
      "##amp": 8145,
      "##rocco": 8146,
      "##edizione": 8147,
      "Gerusalemme": 8148,
      "pertin": 8149,
      "interessanti": 8150,
      "Jih": 8151,
      "cause": 8152,
      "pacchetto": 8153,
      "firmato": 8154,
      "Società": 8155,
      "chitar": 8156,
      "mostrato": 8157,
      "##impiego": 8158,
      "vene": 8159,
      "server": 8160,
      "vengano": 8161,
      "andati": 8162,
      "bron": 8163,
      "passione": 8164,
      "##stero": 8165,
      "von": 8166,
      "rapido": 8167,
      "##SA": 8168,
      "riunioni": 8169,
      "tette": 8170,
      "chirur": 8171,
      "AD": 8172,
      "Cra": 8173,
      "##lon": 8174,
      "Ama": 8175,
      "provvedimenti": 8176,
      "medici": 8177,
      "##28": 8178,
      "sar": 8179,
      "ambienti": 8180,
      "Sardegna": 8181,
      "##dier": 8182,
      "show": 8183,
      "razza": 8184,
      "##glielo": 8185,
      "Catego": 8186,
      "professore": 8187,
      "mand": 8188,
      "====": 8189,
      "##ding": 8190,
      "conoscenze": 8191,
      "ottimi": 8192,
      "EUROP": 8193,
      "ecu": 8194,
      "Pie": 8195,
      "##ingere": 8196,
      "##sey": 8197,
      "37": 8198,
      "Jon": 8199,
      "accel": 8200,
      "portati": 8201,
      "##ATI": 8202,
      "Contatti": 8203,
      "rischia": 8204,
      "##tusia": 8205,
      "osservazioni": 8206,
      "Fammi": 8207,
      "televisione": 8208,
      "canto": 8209,
      "##obbligo": 8210,
      "contatta": 8211,
      "##liano": 8212,
      "aiutarti": 8213,
      "dichiara": 8214,
      "improv": 8215,
      "rivela": 8216,
      "##istono": 8217,
      "matura": 8218,
      "##lto": 8219,
      "180": 8220,
      "lunghi": 8221,
      "1991": 8222,
      "domesti": 8223,
      "Profe": 8224,
      "giallo": 8225,
      "PAR": 8226,
      "applicabili": 8227,
      "tene": 8228,
      "ognuno": 8229,
      "chiedendo": 8230,
      "competitività": 8231,
      "##ski": 8232,
      "preli": 8233,
      "stadio": 8234,
      "fuga": 8235,
      "raccogliere": 8236,
      "stamp": 8237,
      "##sola": 8238,
      "preparare": 8239,
      "Android": 8240,
      "dodici": 8241,
      "compleanno": 8242,
      "cittadino": 8243,
      "Camere": 8244,
      "tassi": 8245,
      "fisico": 8246,
      "possibilita": 8247,
      "originari": 8248,
      "esecuzione": 8249,
      "alza": 8250,
      "##low": 8251,
      "Alcune": 8252,
      "Corpo": 8253,
      "ino": 8254,
      "deposi": 8255,
      "civili": 8256,
      "##fin": 8257,
      "crista": 8258,
      "##voca": 8259,
      "residenza": 8260,
      "ballo": 8261,
      "##cine": 8262,
      "Invece": 8263,
      "Ristorante": 8264,
      "centinaia": 8265,
      "crescente": 8266,
      "##artista": 8267,
      "Guida": 8268,
      "Nome": 8269,
      "Carrello": 8270,
      "latino": 8271,
      "consapevole": 8272,
      "angolo": 8273,
      "##rest": 8274,
      "Carta": 8275,
      "potrete": 8276,
      "##inca": 8277,
      "pazzo": 8278,
      "offerto": 8279,
      "##gliate": 8280,
      "Madri": 8281,
      "testimonianza": 8282,
      "tetto": 8283,
      "##ey": 8284,
      "caratterizzata": 8285,
      "centrali": 8286,
      "Mediterraneo": 8287,
      "irri": 8288,
      "frazione": 8289,
      "Fondazione": 8290,
      "comprendere": 8291,
      "esserci": 8292,
      "prevenzione": 8293,
      "##onati": 8294,
      "Vincen": 8295,
      "Mur": 8296,
      "##TM": 8297,
      "ferma": 8298,
      "antica": 8299,
      "##vedere": 8300,
      "Jihlava": 8301,
      "##erali": 8302,
      "scappare": 8303,
      "##ciano": 8304,
      "Sala": 8305,
      "(5": 8306,
      "condotto": 8307,
      "probabile": 8308,
      "odia": 8309,
      "##ros": 8310,
      "##mocra": 8311,
      "curi": 8312,
      "##tonia": 8313,
      "Christi": 8314,
      "Eventi": 8315,
      "Successivamente": 8316,
      "Fun": 8317,
      "##gheria": 8318,
      "calore": 8319,
      "Jan": 8320,
      "classico": 8321,
      "moneta": 8322,
      "gon": 8323,
      "sedi": 8324,
      "ingegn": 8325,
      "parten": 8326,
      "(2)": 8327,
      "anzi": 8328,
      "sudd": 8329,
      "Bamb": 8330,
      "crimine": 8331,
      "appassion": 8332,
      "piacevole": 8333,
      "Dovresti": 8334,
      "##chel": 8335,
      "elevata": 8336,
      "##wan": 8337,
      "Madonna": 8338,
      "incor": 8339,
      "capisci": 8340,
      "tennis": 8341,
      "profondo": 8342,
      "cavo": 8343,
      "qualcun": 8344,
      "##ceo": 8345,
      "Ron": 8346,
      "Iscriviti": 8347,
      "studiare": 8348,
      "recentemente": 8349,
      "ubria": 8350,
      "DELL": 8351,
      "inviato": 8352,
      "##ganti": 8353,
      "anziani": 8354,
      "pagato": 8355,
      "uffici": 8356,
      "fattore": 8357,
      "Cam": 8358,
      "rappresentante": 8359,
      "##monte": 8360,
      "Capisco": 8361,
      "precedenza": 8362,
      "sguardo": 8363,
      "Gazzetta": 8364,
      "sabato": 8365,
      "riven": 8366,
      "Rosa": 8367,
      "##ressione": 8368,
      "incro": 8369,
      "silenzio": 8370,
      "ved": 8371,
      "accus": 8372,
      "##comunica": 8373,
      "##minata": 8374,
      "Pala": 8375,
      "avverti": 8376,
      "carni": 8377,
      "Lomb": 8378,
      "inclusa": 8379,
      "Merda": 8380,
      "assic": 8381,
      "##esterno": 8382,
      "parete": 8383,
      "tendenza": 8384,
      "dovuta": 8385,
      "italiane": 8386,
      "carro": 8387,
      "Medio": 8388,
      "adatto": 8389,
      "##Me": 8390,
      "costrin": 8391,
      "rav": 8392,
      "assumere": 8393,
      "detective": 8394,
      "ono": 8395,
      "affasc": 8396,
      "Libro": 8397,
      "organizzare": 8398,
      "porre": 8399,
      "veter": 8400,
      "vivi": 8401,
      "Lisbona": 8402,
      "nata": 8403,
      "impren": 8404,
      "##scar": 8405,
      "sotti": 8406,
      "vederti": 8407,
      "socc": 8408,
      "dimostrare": 8409,
      "##urt": 8410,
      "Les": 8411,
      "favorevole": 8412,
      "##FF": 8413,
      "##DO": 8414,
      "Lee": 8415,
      "comma": 8416,
      "destino": 8417,
      "##rino": 8418,
      "##detti": 8419,
      "##now": 8420,
      "elettronica": 8421,
      "verific": 8422,
      "slo": 8423,
      "parità": 8424,
      "##ssu": 8425,
      "segreti": 8426,
      "popoli": 8427,
      "##mentali": 8428,
      "sintomi": 8429,
      "preferito": 8430,
      "Teatro": 8431,
      "prose": 8432,
      "Bil": 8433,
      "sensazione": 8434,
      "birra": 8435,
      "##malmente": 8436,
      "##Assemblea": 8437,
      "##ns": 8438,
      "famosa": 8439,
      "guari": 8440,
      "progettazione": 8441,
      "Mondo": 8442,
      "rubato": 8443,
      "onde": 8444,
      "ACP": 8445,
      "##47": 8446,
      "##vision": 8447,
      "mobile": 8448,
      "competizione": 8449,
      "(1)": 8450,
      "##abb": 8451,
      "##camera": 8452,
      "recuperare": 8453,
      "van": 8454,
      "romana": 8455,
      "limitata": 8456,
      "definis": 8457,
      "artigia": 8458,
      "##arl": 8459,
      "##mond": 8460,
      "mole": 8461,
      "marina": 8462,
      "reca": 8463,
      "Madrid": 8464,
      "##erri": 8465,
      "divor": 8466,
      "##try": 8467,
      "##gliano": 8468,
      "Aiuto": 8469,
      "gioi": 8470,
      "##fono": 8471,
      "##Ch": 8472,
      "limitato": 8473,
      "##kin": 8474,
      "resa": 8475,
      "Nello": 8476,
      "##bol": 8477,
      "##OLO": 8478,
      "britannico": 8479,
      "Stru": 8480,
      "somministra": 8481,
      "brava": 8482,
      "She": 8483,
      "cominciare": 8484,
      "##field": 8485,
      "##iante": 8486,
      "nascosto": 8487,
      "##laborazione": 8488,
      "##erei": 8489,
      "gradu": 8490,
      "Giorgio": 8491,
      "igno": 8492,
      "maestro": 8493,
      "Open": 8494,
      "##dda": 8495,
      "inviare": 8496,
      "##trale": 8497,
      "##ull": 8498,
      "##terebbe": 8499,
      "##vine": 8500,
      "Ferra": 8501,
      "pericoloso": 8502,
      "okay": 8503,
      "vendere": 8504,
      "##27": 8505,
      "singola": 8506,
      "Mario": 8507,
      "attrezzature": 8508,
      "##dermi": 8509,
      "scia": 8510,
      "##well": 8511,
      "universi": 8512,
      "guar": 8513,
      "##stato": 8514,
      "visti": 8515,
      "riuscire": 8516,
      "sorri": 8517,
      "maggiormente": 8518,
      "concluso": 8519,
      "immobiliari": 8520,
      "##fondo": 8521,
      "personalità": 8522,
      "intelle": 8523,
      "supplementari": 8524,
      "sentimenti": 8525,
      "convinto": 8526,
      "##esima": 8527,
      "Monaco": 8528,
      "##zionario": 8529,
      "suolo": 8530,
      "DA": 8531,
      "##rona": 8532,
      "meteo": 8533,
      "esterne": 8534,
      "cristiana": 8535,
      "costituita": 8536,
      "ascoltare": 8537,
      "##derlo": 8538,
      "cominciato": 8539,
      "120": 8540,
      "Regione": 8541,
      "effettuato": 8542,
      "modulo": 8543,
      "ferroviaria": 8544,
      "risponde": 8545,
      "magne": 8546,
      "##rì": 8547,
      "sfide": 8548,
      "appartiene": 8549,
      "Condizioni": 8550,
      "carbon": 8551,
      "##So": 8552,
      "Basi": 8553,
      "vendite": 8554,
      "indicazioni": 8555,
      "##IR": 8556,
      "neu": 8557,
      "fondato": 8558,
      "largo": 8559,
      "##cante": 8560,
      "Bretagna": 8561,
      "California": 8562,
      "chiare": 8563,
      "pasto": 8564,
      "scatola": 8565,
      "sostiene": 8566,
      "matrimoniale": 8567,
      "sfu": 8568,
      "totalmente": 8569,
      "provviso": 8570,
      "Mare": 8571,
      "produce": 8572,
      "##)*": 8573,
      "cass": 8574,
      "diagn": 8575,
      "chiami": 8576,
      "1984": 8577,
      "##COM": 8578,
      "elegante": 8579,
      "cattolica": 8580,
      "Grand": 8581,
      "discutere": 8582,
      "utilizzate": 8583,
      "esseri": 8584,
      "ostacoli": 8585,
      "salv": 8586,
      "##dette": 8587,
      "arrivata": 8588,
      "49": 8589,
      "##celli": 8590,
      "wi": 8591,
      "##arsa": 8592,
      "trasparenza": 8593,
      "Sun": 8594,
      "Feder": 8595,
      "Rapp": 8596,
      "prendo": 8597,
      "caratteristica": 8598,
      "evol": 8599,
      "Sia": 8600,
      "nipote": 8601,
      "##fu": 8602,
      "besti": 8603,
      "International": 8604,
      "##61": 8605,
      "india": 8606,
      "##Sa": 8607,
      "scrive": 8608,
      "attacchi": 8609,
      "##gliamento": 8610,
      "benefici": 8611,
      "##ursioni": 8612,
      "triste": 8613,
      "Qualcosa": 8614,
      "##angolo": 8615,
      "##App": 8616,
      "diventando": 8617,
      "##\";": 8618,
      "sposato": 8619,
      "##mpere": 8620,
      "essenziali": 8621,
      "posteriore": 8622,
      "XVI": 8623,
      "esprimere": 8624,
      "cani": 8625,
      "##iner": 8626,
      "metallo": 8627,
      "(3": 8628,
      "creati": 8629,
      "FA": 8630,
      "rispettare": 8631,
      "andate": 8632,
      "riconoscere": 8633,
      "##bero": 8634,
      "##Istituto": 8635,
      "Sig": 8636,
      "##ket": 8637,
      "Sport": 8638,
      "nerv": 8639,
      "manuale": 8640,
      "Potrei": 8641,
      "Trova": 8642,
      "chiamar": 8643,
      "plastica": 8644,
      "ossi": 8645,
      "##vy": 8646,
      "compagnie": 8647,
      "##nica": 8648,
      "##emen": 8649,
      "##andi": 8650,
      "funzionalità": 8651,
      "##giche": 8652,
      "]": 8653,
      "aro": 8654,
      "comin": 8655,
      "##lesia": 8656,
      "##ttuto": 8657,
      "Lun": 8658,
      "2:": 8659,
      "alte": 8660,
      "mate": 8661,
      "imper": 8662,
      "disposto": 8663,
      "adottata": 8664,
      "giudizia": 8665,
      "Blo": 8666,
      "Accesso": 8667,
      "eccezione": 8668,
      "arro": 8669,
      "Perciò": 8670,
      "riguardano": 8671,
      "Castello": 8672,
      "pagamenti": 8673,
      "AR": 8674,
      "rivolta": 8675,
      "statistiche": 8676,
      "Adam": 8677,
      "comfort": 8678,
      "Mel": 8679,
      "##LL": 8680,
      "##rl": 8681,
      "manifestazione": 8682,
      "##ttanto": 8683,
      "rock": 8684,
      "disputa": 8685,
      "##arne": 8686,
      "televisiva": 8687,
      "nonna": 8688,
      "Note": 8689,
      "##coni": 8690,
      "##pristi": 8691,
      "sapre": 8692,
      "COMUN": 8693,
      "##uca": 8694,
      "appren": 8695,
      "legame": 8696,
      "tun": 8697,
      "##interpre": 8698,
      "##ah": 8699,
      "##glo": 8700,
      "favorire": 8701,
      "deputati": 8702,
      "Genova": 8703,
      "##torio": 8704,
      "orizzon": 8705,
      "Deut": 8706,
      "Op": 8707,
      "Off": 8708,
      "invita": 8709,
      "piede": 8710,
      "Prenota": 8711,
      "elettrico": 8712,
      "incontrare": 8713,
      "dott": 8714,
      "##nio": 8715,
      "usati": 8716,
      "lasciando": 8717,
      "##-11": 8718,
      "##mith": 8719,
      "Comunica": 8720,
      "##arente": 8721,
      "incen": 8722,
      "##altezza": 8723,
      "equival": 8724,
      "interne": 8725,
      "costre": 8726,
      "austria": 8727,
      "Attualmente": 8728,
      "bon": 8729,
      "##atmosfera": 8730,
      "finora": 8731,
      "autobus": 8732,
      "discre": 8733,
      "vissuto": 8734,
      "originali": 8735,
      "1983": 8736,
      "##win": 8737,
      "seguendo": 8738,
      "##DA": 8739,
      "8.": 8740,
      "finali": 8741,
      "profonda": 8742,
      "fortemente": 8743,
      "Ita": 8744,
      "lezione": 8745,
      "incredibile": 8746,
      "guai": 8747,
      "sfruttare": 8748,
      "presentati": 8749,
      "Ly": 8750,
      "servire": 8751,
      "istruzioni": 8752,
      "##Su": 8753,
      "##iana": 8754,
      "linguaggio": 8755,
      "considerati": 8756,
      "effettuati": 8757,
      "aiutato": 8758,
      "##aut": 8759,
      "ripresa": 8760,
      "##bor": 8761,
      "##ziosi": 8762,
      "1:": 8763,
      "##ffitto": 8764,
      "##idi": 8765,
      "bianchi": 8766,
      "brutto": 8767,
      "##ICO": 8768,
      "sensibili": 8769,
      "bos": 8770,
      "prossimi": 8771,
      "magia": 8772,
      "ghiaccio": 8773,
      "saremo": 8774,
      "bril": 8775,
      "##udica": 8776,
      "05": 8777,
      "Dub": 8778,
      "riuscita": 8779,
      "metropolitana": 8780,
      "Piu": 8781,
      "testimonia": 8782,
      "insegna": 8783,
      "assegnato": 8784,
      "Jen": 8785,
      "GR": 8786,
      "Jim": 8787,
      "diventata": 8788,
      "##riti": 8789,
      "Andrea": 8790,
      "banda": 8791,
      "accre": 8792,
      "lavorazione": 8793,
      "##sserva": 8794,
      "##ssati": 8795,
      "rifiuta": 8796,
      "Smettila": 8797,
      "salvo": 8798,
      "email": 8799,
      "##ssina": 8800,
      "cammino": 8801,
      "Recensioni": 8802,
      "morale": 8803,
      "Ospi": 8804,
      "Franco": 8805,
      "identifica": 8806,
      "##ggiando": 8807,
      "Inghilterra": 8808,
      "gambe": 8809,
      "americana": 8810,
      "##gliati": 8811,
      "affermato": 8812,
      "virtù": 8813,
      "venendo": 8814,
      "Racc": 8815,
      "##installazione": 8816,
      "##right": 8817,
      "romano": 8818,
      "##azia": 8819,
      "Film": 8820,
      "conversa": 8821,
      "Flo": 8822,
      "luna": 8823,
      "Rock": 8824,
      "umane": 8825,
      "esercizio": 8826,
      "Scott": 8827,
      "quotidiano": 8828,
      "Ministero": 8829,
      "Award": 8830,
      "neo": 8831,
      "energetica": 8832,
      "cilin": 8833,
      "Presidenza": 8834,
      "magazzino": 8835,
      "medicina": 8836,
      "##ranei": 8837,
      "##vania": 8838,
      "##moto": 8839,
      "##ulso": 8840,
      "contare": 8841,
      "confini": 8842,
      "schifo": 8843,
      "Bas": 8844,
      "scopre": 8845,
      "trovata": 8846,
      "somma": 8847,
      "portando": 8848,
      "Papà": 8849,
      "Fel": 8850,
      "QU": 8851,
      "rilievo": 8852,
      "condividere": 8853,
      "##ghese": 8854,
      "##ett": 8855,
      "Facebook": 8856,
      "ja": 8857,
      "Sezione": 8858,
      "organizzata": 8859,
      "conosciuta": 8860,
      "Loren": 8861,
      "indagini": 8862,
      "sembrava": 8863,
      "##ors": 8864,
      "##entro": 8865,
      "##atte": 8866,
      "rossa": 8867,
      "##PS": 8868,
      "venivano": 8869,
      "Trans": 8870,
      "##reakfast": 8871,
      "artific": 8872,
      "##istenti": 8873,
      "##lizzare": 8874,
      "novità": 8875,
      "tribunale": 8876,
      "censi": 8877,
      "##mestre": 8878,
      "altezza": 8879,
      "promesso": 8880,
      "rotta": 8881,
      "##Ri": 8882,
      "rumore": 8883,
      "notato": 8884,
      "liti": 8885,
      "prestiti": 8886,
      "eseguire": 8887,
      "##tions": 8888,
      "masch": 8889,
      "fedeli": 8890,
      "sconosci": 8891,
      "prenotare": 8892,
      "indicare": 8893,
      "##lavo": 8894,
      "##ampia": 8895,
      "debb": 8896,
      "dono": 8897,
      "44": 8898,
      "carino": 8899,
      "##miamo": 8900,
      "##mus": 8901,
      "fila": 8902,
      "Almeno": 8903,
      "privacy": 8904,
      "##BN": 8905,
      "pann": 8906,
      "Acce": 8907,
      "tranquillo": 8908,
      "##etichetta": 8909,
      "stretta": 8910,
      "sfo": 8911,
      "Vienna": 8912,
      "##umanità": 8913,
      "rilascio": 8914,
      "##torie": 8915,
      "##cchetti": 8916,
      "stagioni": 8917,
      "guidare": 8918,
      "##67": 8919,
      "uccelli": 8920,
      "scomparsa": 8921,
      "poveri": 8922,
      "##stia": 8923,
      "riscaldamento": 8924,
      "Alessandro": 8925,
      "##deranno": 8926,
      "Appartamenti": 8927,
      "riprese": 8928,
      "bellissimo": 8929,
      "lunghe": 8930,
      "Produ": 8931,
      "amministrazione": 8932,
      "patri": 8933,
      "diceva": 8934,
      "avviare": 8935,
      "esclu": 8936,
      "comanda": 8937,
      "##utica": 8938,
      "avvicin": 8939,
      "esce": 8940,
      "99": 8941,
      "appartenente": 8942,
      "ville": 8943,
      "Sapete": 8944,
      "##zano": 8945,
      "mondiali": 8946,
      "##logi": 8947,
      "farebbe": 8948,
      "corretto": 8949,
      "##indagine": 8950,
      "##ult": 8951,
      "##opzione": 8952,
      "brev": 8953,
      "##esportazione": 8954,
      "riguardante": 8955,
      "omo": 8956,
      "Vitto": 8957,
      "##FOR": 8958,
      "Anch": 8959,
      "imparato": 8960,
      "Asia": 8961,
      "rimasta": 8962,
      "portò": 8963,
      "annunciato": 8964,
      "uova": 8965,
      "racconta": 8966,
      "ottenne": 8967,
      "##Ba": 8968,
      "##imposta": 8969,
      "dero": 8970,
      "##lam": 8971,
      "sembrare": 8972,
      "progresso": 8973,
      "parrocchia": 8974,
      "##razz": 8975,
      "ricordato": 8976,
      "##án": 8977,
      "##visioni": 8978,
      "Treni": 8979,
      "##dt": 8980,
      "brani": 8981,
      "##gale": 8982,
      "preparato": 8983,
      "poliziotto": 8984,
      "250": 8985,
      "individui": 8986,
      "##uch": 8987,
      "Male": 8988,
      "scorsa": 8989,
      "russo": 8990,
      "##prima": 8991,
      "Tony": 8992,
      "##out": 8993,
      "Resi": 8994,
      "forno": 8995,
      "##ttrice": 8996,
      "Immagino": 8997,
      "Conferenza": 8998,
      "chiudere": 8999,
      "quarta": 9000,
      "10.": 9001,
      "Scusate": 9002,
      "Modificato": 9003,
      "povertà": 9004,
      "ecci": 9005,
      "dedic": 9006,
      "##abi": 9007,
      "decisi": 9008,
      "risultano": 9009,
      "marcia": 9010,
      "rilevante": 9011,
      "canali": 9012,
      "scelte": 9013,
      "##03": 9014,
      "##ça": 9015,
      "misteri": 9016,
      "rad": 9017,
      "3:": 9018,
      "facoltà": 9019,
      "##cidi": 9020,
      "##kh": 9021,
      "Scusami": 9022,
      "onorevole": 9023,
      "compagno": 9024,
      "indipendenti": 9025,
      "passando": 9026,
      "aspettando": 9027,
      "##lyn": 9028,
      "scul": 9029,
      "COMM": 9030,
      "Company": 9031,
      "conferi": 9032,
      "convo": 9033,
      "Ur": 9034,
      "##bert": 9035,
      "Comple": 9036,
      "iscritto": 9037,
      "flusso": 9038,
      "DE": 9039,
      "esempi": 9040,
      "##bs": 9041,
      "##ken": 9042,
      "corrispondente": 9043,
      "TR": 9044,
      "cittadina": 9045,
      "trovo": 9046,
      "concesso": 9047,
      "cinqu": 9048,
      "##ceano": 9049,
      "distruzione": 9050,
      "crescere": 9051,
      "##uel": 9052,
      "Però": 9053,
      "##kes": 9054,
      "Guerra": 9055,
      "Malta": 9056,
      "Sche": 9057,
      "Email": 9058,
      "Lar": 9059,
      "complessivo": 9060,
      "ove": 9061,
      "Tex": 9062,
      "##pare": 9063,
      "##air": 9064,
      "giuridico": 9065,
      "leggermente": 9066,
      "residenziale": 9067,
      "finanziamenti": 9068,
      "venduto": 9069,
      "Programma": 9070,
      "naso": 9071,
      "agri": 9072,
[...]
